<unk>	0
<s>	0
</s>	0
.	-3.40911
▁	-3.73915
을	-4.12418
이	-4.20335
에	-4.4278
의	-4.55008
,	-4.57249
도	-4.60379
가	-4.65381
는	-4.69263
를	-4.7264
은	-4.91494
고	-5.17866
지	-5.23474
로	-5.24898
으로	-5.37199
?	-5.40359
한	-5.41989
하고	-5.5327
과	-5.54726
만	-5.59118
에서	-5.61871
▁수	-5.69649
인	-5.74459
하는	-5.78114
▁이	-5.81779
기	-5.86545
▁그	-5.94312
입니다	-5.96987
해	-6.06677
서	-6.07337
▁있습니다	-6.08041
게	-6.11386
와	-6.12109
▁있는	-6.14055
수	-6.15677
시	-6.16581
자	-6.17118
일	-6.20113
나	-6.2081
다	-6.217
▁합니다	-6.2237
대	-6.23624
사	-6.27982
)	-6.28504
할	-6.33183
면	-6.36643
년	-6.41429
▁안	-6.4342
▁한	-6.43758
어	-6.46088
하여	-6.47671
합니다	-6.50444
▁더	-6.51916
▁1	-6.52055
들	-6.53071
...	-6.54121
들이	-6.56363
▁일	-6.57351
리	-6.5771
▁다	-6.60204
원	-6.61627
주	-6.61987
장	-6.63971
상	-6.64146
▁하는	-6.64225
요	-6.64295
하게	-6.65917
부	-6.67268
라	-6.678
(	-6.69113
해서	-6.69335
▁전	-6.69702
야	-6.70982
▁이런	-6.72896
아	-6.73109
적	-6.73262
▁할	-6.76046
까지	-6.79902
거	-6.8277
정	-6.8374
구	-6.84331
에게	-6.85094
성	-6.87095
진	-6.87257
▁하고	-6.87478
하지	-6.88111
세	-6.88377
▁왜	-6.88405
보	-6.88463
전	-6.9123
▁저는	-6.91247
제	-6.91624
▁생각합니다	-6.92059
▁2	-6.92617
▁너무	-6.9283
▁대한	-6.92845
▁내	-6.94276
▁주	-6.95505
는데	-6.9657
!	-6.97844
비	-6.9818
▁생각	-6.98219
▁못	-7.0059
된	-7.01137
▁그리고	-7.01777
소	-7.02099
화	-7.02437
중	-7.02986
▁제	-7.03055
▁지금	-7.0349
해야	-7.03591
▁말	-7.03601
▁많은	-7.04249
▁3	-7.04618
이나	-7.04971
신	-7.05637
차	-7.05787
하	-7.07103
들은	-7.07329
▁가	-7.08736
치	-7.08759
▁없는	-7.09093
▁우리	-7.09922
▁것	-7.10672
적으로	-7.10701
▁등	-7.10773
안	-7.1178
명	-7.11872
라고	-7.12477
▁저	-7.1266
하면	-7.12728
적인	-7.12834
동	-7.13828
당	-7.13944
▁정말	-7.15405
▁사	-7.17294
내	-7.17792
스	-7.18365
▁잘	-7.18656
▁국민	-7.19199
▁지	-7.20184
여	-7.21259
▁해	-7.21267
조	-7.21557
니	-7.22227
등	-7.22299
습니다	-7.22564
▁위해	-7.22594
▁중	-7.23745
며	-7.24659
▁모든	-7.24973
▁현재	-7.25402
월	-7.25447
무	-7.25658
질	-7.25736
▁무	-7.25931
관	-7.26221
위	-7.2703
단	-7.27782
▁보	-7.27832
▁및	-7.27953
용	-7.2833
실	-7.28721
▁많이	-7.29267
방	-7.29523
▁하지만	-7.29637
▁고	-7.29824
급	-7.30188
▁대	-7.31176
▁다른	-7.31564
▁대한민국	-7.3213
히	-7.32158
건	-7.32169
산	-7.32397
분	-7.32452
다고	-7.32789
▁없습니다	-7.33239
▁것이	-7.3341
라는	-7.33564
식	-7.33732
려	-7.34677
선	-7.34683
법	-7.35047
/	-7.35122
▁부	-7.35162
▁정	-7.35527
"	-7.35943
국	-7.3616
'	-7.37269
▁나	-7.37419
부터	-7.3781
▁바랍니다	-7.37823
들을	-7.38412
하기	-7.38932
권	-7.39275
데	-7.4104
공	-7.41502
▁유	-7.41718
직	-7.41793
되는	-7.41934
▁5	-7.42216
보다	-7.43361
▁청원	-7.44139
▁같은	-7.44144
금	-7.44374
▁제발	-7.44838
회	-7.45794
만원	-7.46017
개	-7.46232
▁또한	-7.46297
▁4	-7.46564
▁비	-7.46567
인데	-7.47362
▁"	-7.47573
계	-7.48204
▁정부	-7.48291
들의	-7.48366
▁아니라	-7.48446
▁제가	-7.48519
▁'	-7.4888
미	-7.4965
마	-7.49732
지만	-7.49904
▁자	-7.50242
▁공	-7.50273
이라는	-7.50393
~	-7.51145
감	-7.51275
▁이렇게	-7.51689
간	-7.52485
▁또	-7.52863
심	-7.52883
▁것입니다	-7.52987
▁하	-7.53353
재	-7.53448
▁국가	-7.53825
▁소	-7.54618
▁그런	-7.54915
통	-7.5534
▁10	-7.55911
1	-7.55985
유	-7.56105
▁돈	-7.56246
▁입니다	-7.56654
▁한국	-7.57028
이라고	-7.57339
되어	-7.57442
던	-7.57889
살	-7.58483
체	-7.58647
▁대통령님	-7.58839
▁국민의	-7.59551
시간	-7.59934
▁것은	-7.60317
면서	-7.61139
물	-7.61476
▁아닌	-7.61714
우	-7.61875
2	-7.62
때	-7.62033
후	-7.62105
▁시	-7.62668
문	-7.62766
에는	-7.62851
▁기	-7.63114
▁위한	-7.63177
▁차	-7.63187
하며	-7.63336
▁문재인	-7.6341
생	-7.63551
오	-7.63809
경	-7.63933
3	-7.6402
▁위	-7.64289
▁큰	-7.64522
▁이상	-7.65031
▁나라	-7.65602
네요	-7.65729
▁(	-7.65882
▁법	-7.65983
입	-7.66362
▁저희	-7.66466
▁재	-7.66986
▁미	-7.67068
▁다시	-7.6791
▁그런데	-7.68145
▁오	-7.68424
처럼	-7.68533
점	-7.68638
▁하지	-7.69116
행	-7.69224
▁처벌	-7.69698
으면	-7.70915
▁될	-7.71091
이고	-7.71104
트	-7.71567
억	-7.71674
▁있다	-7.71969
▁되	-7.71978
▁대통령	-7.72042
▁구	-7.72073
▁해야	-7.72271
▁개	-7.72583
▁어떻게	-7.72932
▁상	-7.72985
-	-7.72999
형	-7.73026
연	-7.73082
되고	-7.73125
▁않고	-7.73317
증	-7.73325
이다	-7.73348
▁두	-7.73479
▁불	-7.73578
청	-7.74724
▁만들어	-7.74937
배	-7.75075
▁때문에	-7.75132
호	-7.75137
길	-7.75309
양	-7.75317
▁때	-7.75998
모	-7.76062
▁모두	-7.77284
▁공무원	-7.77472
음	-7.77619
▁문제	-7.7775
▁교육	-7.78377
천	-7.787
▁우리나라	-7.7875
▁지원	-7.78856
집	-7.78984
▁6	-7.79423
▁사람	-7.79649
▁사용	-7.79741
▁원	-7.798
▁약	-7.80369
▁알고	-7.80428
▁당	-7.80668
것	-7.80746
▁부탁드립니다	-7.80967
▁20	-7.81123
▁되는	-7.81227
러	-7.81379
▁아니	-7.81537
죠	-7.81599
있는	-7.81921
▁연	-7.8195
학	-7.8303
▁서울	-7.83116
드	-7.8341
▁살	-7.83534
날	-7.83544
▁사람이	-7.83889
▁모	-7.83994
없이	-7.84352
말	-7.84476
▁좀	-7.8466
▁있도록	-7.85074
▁보고	-7.85144
반	-7.85253
▁경제	-7.85657
영	-7.85817
▁중국	-7.85877
다는	-7.86003
▁것을	-7.86146
▁세금	-7.86495
▁꼭	-7.86548
▁하나	-7.86641
▁마	-7.86701
▁아	-7.86812
▁않는	-7.87037
이라	-7.87186
라도	-7.87193
▁거	-7.87971
▁폐지	-7.87994
해주세요	-7.88026
에서는	-7.88087
▁같습니다	-7.88343
▁집	-7.88418
▁계속	-7.88447
란	-7.88473
▁입	-7.88695
한다	-7.88721
약	-7.88996
교	-7.893
▁경찰	-7.89316
▁남	-7.894
▁대해	-7.89481
▁후	-7.90209
▁여	-7.90338
▁아파트	-7.91831
지요	-7.91925
▁요즘	-7.92143
함	-7.92292
▁않습니다	-7.92629
출	-7.92653
▁조	-7.92778
▁부동산	-7.92781
▁단	-7.92907
▁있고	-7.9291
▁불법	-7.93043
▁경우	-7.93174
걸	-7.93331
주세요	-7.93588
▁참	-7.93784
▁일본	-7.93863
임	-7.9391
▁여성	-7.94191
▁제대로	-7.94197
▁동	-7.94315
▁국회의원	-7.94333
▁몇	-7.94461
종	-7.94727
▁경	-7.94875
▁해결	-7.95085
▁한다	-7.95309
▁지역	-7.95445
바	-7.95735
에도	-7.95803
▁아닙니다	-7.95932
▁성	-7.95972
▁이번	-7.95974
▁반	-7.95976
운	-7.96071
▁청와대	-7.96183
▁좋은	-7.96363
▁되어	-7.96375
▁-	-7.96475
▁사회	-7.96501
군	-7.96648
발	-7.96722
속	-7.96792
▁김	-7.9687
▁있는데	-7.9701
들에게	-7.97092
▁들어	-7.97101
▁사건	-7.97151
남	-7.97574
▁관련	-7.97641
역	-7.97996
▁사람들이	-7.98002
▁줄	-7.98134
▁한다고	-7.98327
▁그냥	-7.98392
▁피	-7.98459
민	-7.98617
력	-7.98685
병	-7.98815
니다	-7.9902
파	-7.99425
그	-7.9945
▁신	-7.99749
했습니다	-8.00007
▁정책	-8.00282
▁배	-8.0054
▁보호	-8.01035
▁이제	-8.014
▁물론	-8.01768
▁없	-8.01876
▁주세요	-8.0216
▁만	-8.03156
타	-8.03187
▁어떤	-8.03374
없는	-8.03514
▁가장	-8.04092
▁그래서	-8.04388
▁국민이	-8.04408
하는데	-8.04441
범	-8.04639
▁학교	-8.04676
▁선	-8.04731
▁좋겠습니다	-8.04936
▁문	-8.0541
??	-8.05593
거나	-8.05603
▁현	-8.05634
▁일을	-8.05752
든	-8.05884
▁기업	-8.06117
▁조사	-8.06503
▁없이	-8.06505
▁안녕하세요	-8.066
▁있을	-8.06848
▁받고	-8.06977
▁북한	-8.07279
줄	-8.07466
▁실	-8.0768
강	-8.07793
▁바로	-8.0783
▁됩니다	-8.08144
▁7	-8.0836
르	-8.08629
져	-8.08693
석	-8.08741
▁봅니다	-8.08823
지도	-8.0905
▁있다고	-8.09058
같은	-8.09096
해도	-8.09265
하다	-8.09425
박	-8.10383
번	-8.10384
▁인	-8.10399
하면서	-8.10647
저	-8.10698
▁하면	-8.10928
▁문제가	-8.11449
▁국민들이	-8.11462
될	-8.11554
▁않	-8.11572
▁해주세요	-8.1191
▁국민연금	-8.11921
▁이러한	-8.11929
다면	-8.11977
▁알	-8.12103
량	-8.12144
▁무슨	-8.12149
▁그렇게	-8.12191
▁이게	-8.12274
▁한번	-8.1258
달	-8.12993
좀	-8.13312
업	-8.13638
▁외	-8.13773
▁장	-8.14144
료	-8.14421
두	-8.14473
외	-8.14541
불	-8.14575
할수	-8.14591
▁미세먼지	-8.14642
▁이미	-8.14743
▁일반	-8.14844
!!	-8.14941
매	-8.1508
▁바	-8.15338
▁간	-8.15561
▁인해	-8.15848
워	-8.159
▁타	-8.15988
님	-8.16126
▁분	-8.16147
냐	-8.16177
▁어	-8.16186
포	-8.16252
복	-8.16292
령	-8.1635
▁청원합니다	-8.16493
되	-8.16498
▁있	-8.16588
개월	-8.16934
▁적	-8.17031
인지	-8.17357
▁개선	-8.1763
▁세	-8.17981
한테	-8.18142
▁군	-8.18153
▁심	-8.18183
겁니다	-8.18186
▁많습니다	-8.1823
▁해서	-8.18439
6	-8.18699
지는	-8.18808
▁관리	-8.19172
기를	-8.1918
▁미국	-8.19332
▁하는데	-8.19416
절	-8.19675
▁국민들	-8.19944
▁개인	-8.20518
▁죽	-8.20877
▁회사	-8.21252
까	-8.21284
니까	-8.21352
▁일이	-8.2189
▁이용	-8.22062
▁국	-8.22117
▁아이	-8.22381
▁국민을	-8.22566
▁운영	-8.22785
▁해당	-8.22964
린	-8.22996
5	-8.23028
대로	-8.23125
▁우	-8.23322
▁그러나	-8.23369
본	-8.2365
문제	-8.23703
▁말이	-8.23734
품	-8.24038
▁보면	-8.24089
입니까	-8.2424
▁8	-8.24352
▁없고	-8.24395
▁글을	-8.24557
디	-8.24654
▁범죄	-8.24702
자가	-8.24777
▁물	-8.24841
▁가정	-8.25109
▁들	-8.25181
▁시간	-8.25198
태	-8.25311
▁발	-8.25321
▁자기	-8.25337
▁가족	-8.25448
▁일자리	-8.25801
목	-8.25851
▁언론	-8.25886
4	-8.26484
▁시행	-8.26541
류	-8.2656
▁강	-8.26577
네	-8.26825
피	-8.26899
▁막	-8.26919
▁서	-8.26957
▁지급	-8.26974
▁정치	-8.27238
▁같이	-8.27425
▁않은	-8.27443
▁글	-8.27699
▁편	-8.27892
처	-8.27943
울	-8.28182
▁돈을	-8.28258
교육	-8.28372
▁통해	-8.29272
▁노	-8.29705
▁건	-8.29706
▁속	-8.29872
▁국회	-8.30042
▁안전	-8.30069
▁하여	-8.30181
려고	-8.30261
정부	-8.30272
▁못하고	-8.30544
▁치	-8.30832
▁일부	-8.31015
채	-8.3107
엔	-8.31157
▁진행	-8.31158
e	-8.31186
▁시작	-8.31212
▁가지고	-8.31411
=	-8.31522
▁오늘	-8.31716
▁받아	-8.31717
▁얼마나	-8.32067
립	-8.32192
▁뭐	-8.32223
▁여자	-8.32253
▁최저임금	-8.3258
난	-8.32661
▁수사	-8.32688
▁방	-8.32766
나요	-8.33272
▁피해	-8.33308
하라	-8.33353
한다고	-8.3349
▁30	-8.33618
▁잘못	-8.33802
돈	-8.33895
▁제도	-8.33954
▁망	-8.34314
▁손	-8.34901
있	-8.34965
▁청소년	-8.35069
▁되지	-8.35622
래	-8.35743
▁열	-8.35952
됩니다	-8.36136
▁인정	-8.36328
▁인권	-8.36332
죄	-8.36336
각	-8.3635
▁각	-8.36526
▁교	-8.36551
....	-8.36551
▁사람들	-8.36613
격	-8.36664
기에	-8.36669
이며	-8.36777
되지	-8.36799
▁근무	-8.37047
▁따라	-8.37137
갈	-8.37168
▁날	-8.37237
▁학생	-8.37345
▁된	-8.37373
▁노력	-8.37429
현	-8.37453
더	-8.37624
▁차량	-8.37645
편	-8.37706
▁하루	-8.37837
▁본	-8.3785
▁확인	-8.37959
이라도	-8.38098
▁9	-8.3815
설	-8.38224
▁없다	-8.38513
▁적용	-8.38807
▁먼저	-8.38856
▁정부가	-8.38945
들도	-8.39038
▁양	-8.39628
▁투자	-8.39718
림	-8.39877
▁이유로	-8.40236
▁생활	-8.40276
▁남성	-8.40307
o	-8.40421
판	-8.40615
▁예	-8.40693
▁잡	-8.40719
합	-8.40841
▁서민	-8.41262
▁또는	-8.41491
▁먹	-8.41542
▁세계	-8.41611
▁받는	-8.41702
▁있게	-8.4171
▁피해를	-8.41831
▁어느	-8.41869
추	-8.4188
▁직접	-8.41965
있습니다	-8.42107
▁벌	-8.4223
▁사고	-8.42237
▁결국	-8.42788
▁애	-8.42958
▁앞으로	-8.43228
m	-8.43309
▁당장	-8.43788
▁있다는	-8.4391
▁남자	-8.43945
▁초	-8.44124
▁열심히	-8.44522
▁아니고	-8.44535
▁되고	-8.44594
때문에	-8.44825
▁위해서	-8.44883
▁되었습니다	-8.44909
초	-8.44951
▁적폐	-8.44991
▁발생	-8.45024
온	-8.45126
▁법을	-8.45129
못	-8.45209
습	-8.45247
▁여러	-8.45287
▁진짜	-8.45293
▁맞	-8.45353
터	-8.45498
었습니다	-8.45504
▁없어	-8.45678
▁대한민국의	-8.45691
▁필요	-8.45765
▁특히	-8.45922
층	-8.46017
▁정부는	-8.46148
사람	-8.46164
▁사실	-8.46177
▁1.	-8.46257
작	-8.46326
▁주택	-8.46413
▁오히려	-8.46508
▁밖에	-8.46898
▁월급	-8.46909
▁함께	-8.47023
결	-8.4711
▁2.	-8.47215
겨	-8.47433
▁파	-8.4744
▁연금	-8.47609
으	-8.47667
어야	-8.477
▁복지	-8.48339
▁온	-8.48373
었	-8.4862
씨	-8.48625
▁반드시	-8.48698
▁기사	-8.48707
▁감	-8.48743
▁방송	-8.48801
했다	-8.48856
▁살고	-8.48902
예	-8.48903
▁대학	-8.48979
나라	-8.49157
▁신고	-8.49222
근	-8.49859
▁사는	-8.49865
▁지방	-8.50123
표	-8.50153
정도	-8.50269
▁지난	-8.50344
▁과	-8.50375
구요	-8.50418
▁누가	-8.50453
▁안되는	-8.50575
락	-8.50803
▁관	-8.51021
▁대표	-8.51268
▁동의	-8.51268
s	-8.51317
는게	-8.51513
망	-8.51515
▁것으로	-8.51573
▁매	-8.5165
기간	-8.51793
▁해도	-8.51869
▁생각이	-8.51944
▁눈	-8.52064
▁책임	-8.52091
▁정도	-8.52138
이상	-8.52268
한다는	-8.52301
담	-8.52313
▁이건	-8.52332
취	-8.52579
▁국민들의	-8.52623
도록	-8.52838
▁볼	-8.53017
액	-8.5302
▁걸	-8.5323
▁전혀	-8.53257
▁추	-8.53368
▁총	-8.53513
▁나라가	-8.53857
▁정권	-8.53914
▁강화	-8.53963
▁취업	-8.54146
지역	-8.54225
▁반대	-8.54231
노	-8.54243
▁점	-8.54305
▁절대	-8.54527
인가요	-8.54553
이란	-8.54743
▁산	-8.54759
없	-8.54943
▁진	-8.55059
▁설치	-8.55077
자는	-8.55249
기관	-8.55275
▁달	-8.5528
▁규제	-8.55438
▁할수	-8.55516
▁학	-8.55586
▁피해자	-8.55781
창	-8.55862
▁것이다	-8.55908
분들	-8.55919
하나	-8.5595
▁박	-8.56009
랑	-8.56136
▁투기	-8.56499
▁선거	-8.56643
지고	-8.56676
▁싶습니다	-8.56771
▁최근	-8.56852
레	-8.56874
독	-8.57049
▁국내	-8.57135
!!!	-8.57474
▁못하는	-8.57616
▁정신	-8.57785
▁판단	-8.57877
정책	-8.57887
평	-8.57976
▁넘	-8.58068
▁건강	-8.58295
▁대출	-8.58533
▁스	-8.58604
▁쓰	-8.58666
▁화	-8.58706
▁군대	-8.58765
회사	-8.58831
열	-8.58835
▁행정	-8.59068
▁가상화폐	-8.59104
것이	-8.59123
▁인터넷	-8.59219
릴	-8.5942
철	-8.59451
▁자유	-8.59479
악	-8.59722
▁했습니다	-8.6018
하다고	-8.60402
▁환경	-8.60403
▁영	-8.6068
가는	-8.61024
▁갈	-8.61025
먹	-8.61037
▁개정	-8.61202
▁감사합니다	-8.61246
름	-8.61294
쳐	-8.61296
000	-8.613
:	-8.61398
▁나라를	-8.61418
▁필요한	-8.61423
사건	-8.61585
▁있어	-8.61594
곳	-8.61674
다가	-8.61732
8	-8.62327
▁난민	-8.62467
프	-8.62677
▁죄	-8.62689
▁어린이집	-8.62712
▁병	-8.62725
▁해외	-8.62764
▁공개	-8.6284
▁의무	-8.62922
▁명	-8.62951
▁인상	-8.63385
씩	-8.63591
리고	-8.63605
▁처	-8.63606
t	-8.63639
에서도	-8.6388
▁장애인	-8.6389
▁부분	-8.63903
환	-8.6396
▁아니면	-8.64006
토	-8.64204
9	-8.64225
▁신청	-8.64239
▁대기업	-8.64349
▁처리	-8.64396
▁취	-8.64744
▁있지만	-8.64902
향	-8.64904
▁시장	-8.65157
▁의사	-8.65169
▁귀	-8.65205
▁살아	-8.65225
▁호	-8.65234
▁12	-8.65267
▁정부에서	-8.65541
▁과연	-8.65817
▁더이상	-8.6601
▁많	-8.6607
▁이해	-8.66189
익	-8.66259
것을	-8.66292
▁이명박	-8.6642
▁지지	-8.66444
▁아무	-8.66444
론	-8.66545
세요	-8.66631
크	-8.66688
제도	-8.66721
▁내용	-8.6686
겠습니다	-8.66875
긴	-8.67033
▁100	-8.67094
▁없다고	-8.67114
’	-8.67373
▁매우	-8.67397
▁외국인	-8.67493
국민	-8.67768
”	-8.67862
▁답변	-8.67958
▁더욱	-8.68079
시는	-8.68201
▁내려	-8.68226
▁부모	-8.68381
▁종	-8.68434
항	-8.68472
어서	-8.68494
▁직원	-8.68505
▁보내	-8.6854
것입니다	-8.68714
했	-8.6879
되면	-8.68814
▁나이	-8.6882
하거나	-8.68871
▁뒤	-8.68905
북	-8.68943
▁도대체	-8.68968
색	-8.69072
▁받을	-8.69253
▁대해서	-8.69286
▁정책을	-8.69286
▁받	-8.69431
▁우선	-8.69618
▁번	-8.69845
▁고용	-8.69883
▁정부의	-8.70099
▁사람들은	-8.70101
기도	-8.70132
▁찾아	-8.70146
듯	-8.70161
▁아주	-8.70195
▁사기	-8.70398
값	-8.70428
하시는	-8.70483
글	-8.70487
는지	-8.70672
▁누구	-8.70763
▁다음	-8.70779
수가	-8.70852
▁업무	-8.70871
▁거의	-8.70879
조차	-8.70936
하니	-8.70965
▁못한	-8.70985
10	-8.71052
주택	-8.71203
▁‘	-8.71247
▁요구	-8.7125
▁의료	-8.71281
▁“	-8.7139
▁금지	-8.71579
▁폭행	-8.71588
루	-8.71608
기업	-8.71793
▁결정	-8.71815
▁발전	-8.7192
▁것도	-8.72118
▁자신의	-8.72165
▁급	-8.72298
▁식	-8.72459
▁2018	-8.72564
▁보장	-8.72719
▁3.	-8.72802
▁기본	-8.72966
보고	-8.73036
▁말고	-8.73051
▁계	-8.73074
기가	-8.73092
▁곳	-8.7314
▁어디	-8.7315
하지만	-8.73202
▁시험	-8.7326
지를	-8.73262
▁가해자	-8.73371
▁마련	-8.73419
▁안됩니다	-8.73435
버	-8.73511
://	-8.73647
▁검찰	-8.73704
▁직	-8.73789
준	-8.73857
▁통	-8.74017
▁임금	-8.74022
▁부담	-8.74032
▁선택	-8.7412
마다	-8.74233
▁계약	-8.74253
주고	-8.74264
▁이야기	-8.74363
율	-8.74365
만큼	-8.74441
▁불구하고	-8.74525
▁이후	-8.74598
시고	-8.74612
건지	-8.74757
한다면	-8.74783
▁아이를	-8.74837
▁않을	-8.74967
▁결혼	-8.74995
▁행동	-8.75048
▁질	-8.75052
▁비리	-8.75072
▁하면서	-8.75103
시켜	-8.75127
▁생	-8.75157
▁주는	-8.75157
▁시민	-8.75181
▁대부분	-8.75346
성을	-8.75368
자들	-8.75441
▁지금당장	-8.75475
▁이를	-8.75616
▁병원	-8.75631
▁돈이	-8.75761
▁그럼	-8.75783
7	-8.75829
▁새	-8.75869
승	-8.75903
들어	-8.76096
▁살인	-8.76204
거리	-8.7625
a	-8.7626
▁변	-8.76261
압	-8.76313
▁만들	-8.76334
▁그러	-8.7659
▁말씀	-8.76626
▁교사	-8.76677
▁처벌을	-8.76769
라면	-8.76815
받고	-8.76864
▁인간	-8.76977
▁힘든	-8.76981
▁아이들	-8.77047
친	-8.77324
사고	-8.77374
▁보상	-8.77417
손	-8.77592
▁얘기	-8.77683
▁국민들은	-8.77738
▁마음	-8.77822
▁분양	-8.77837
으며	-8.77912
잡	-8.77913
▁사람은	-8.77968
▁직장	-8.78098
▁부디	-8.78286
]	-8.78334
혀	-8.78477
▁작	-8.78481
▁법이	-8.78504
▁증	-8.78527
▁금	-8.7859
▁길	-8.78689
▁선수	-8.78741
▁청년	-8.78766
▁집값	-8.78804
▁전화	-8.7884
탄	-8.78856
▁거래	-8.79067
▁언제	-8.79097
20	-8.79162
▁지나	-8.79168
▁난	-8.79181
▁받지	-8.79202
축	-8.79274
▁미래	-8.79357
▁보다	-8.79434
▁무조건	-8.79489
되어야	-8.7953
겠지만	-8.79567
d	-8.79628
▁좋	-8.7974
습니까	-8.79844
▁장관	-8.79881
▁행위	-8.79976
▁헌법	-8.80157
병원	-8.80227
례	-8.80262
▁세금을	-8.80266
들과	-8.80309
▁잘못된	-8.80363
▁과거	-8.8055
▁근로자	-8.80601
▁아무리	-8.80635
벌	-8.80664
▁있어서	-8.80799
▁인한	-8.8083
▁힘	-8.8099
▁아직	-8.81001
▁공부	-8.81005
▁겁니다	-8.81135
▁가격	-8.81141
▁상황	-8.81246
▁백	-8.81373
▁돌아	-8.81397
▁준비	-8.81441
별	-8.81544
▁가능	-8.81745
▁단속	-8.81778
놓고	-8.81785
▁결과	-8.81845
이면	-8.8189
▁먹고	-8.82175
폐	-8.82269
건가요	-8.82301
▁예산	-8.82446
으니	-8.8245
충	-8.82458
리는	-8.82473
책	-8.82578
▁아직도	-8.82648
▁감사	-8.82699
업체	-8.82812
p	-8.82862
것도	-8.82948
▁기관	-8.82962
▁빨리	-8.83064
▁걱정	-8.8313
까요	-8.83174
▁평화	-8.83197
▁되면	-8.83203
▁청원을	-8.83225
▁뉴스	-8.83271
순	-8.83493
견	-8.83546
▁제한	-8.83575
▁조금	-8.83627
▁본인	-8.83697
▁짓	-8.83897
▁주장	-8.83933
▁나가	-8.84101
▁각종	-8.84116
및	-8.84167
막	-8.84287
집니다	-8.84331
▁허	-8.84339
▁숨	-8.84676
사회	-8.84726
관리	-8.84739
▁어려운	-8.84745
▁이에	-8.84752
▁청	-8.84824
▁댓글	-8.8488
주의	-8.85022
더군요	-8.85204
척	-8.85267
▁판매	-8.85511
침	-8.85551
했던	-8.85614
▁올려	-8.85618
▁도로	-8.85669
해주	-8.86004
하였습니다	-8.86051
▁권력	-8.86053
▁:	-8.86141
▁이유	-8.86189
▁소득	-8.86594
▁의원	-8.86639
▁유지	-8.86681
▁내가	-8.86715
▁말도	-8.86755
▁서로	-8.86849
▁갑질	-8.86887
▁저의	-8.86973
▁천	-8.8699
키	-8.87066
▁분들	-8.87092
▁재산	-8.87192
국가	-8.87343
▁농	-8.87502
▁사업	-8.87523
▁술	-8.87627
중에	-8.87644
▁검사	-8.87717
▁차별	-8.87825
▁너무나	-8.87844
년간	-8.87969
▁유치원	-8.88008
▁벌금	-8.8813
▁욕	-8.88162
▁우리가	-8.88172
▁악	-8.88198
▁박근혜	-8.88251
▁아이들이	-8.88286
▁강제	-8.88289
▁복	-8.88355
▁대책	-8.8838
▁가입	-8.88465
티	-8.88547
▁처음	-8.88555
탈	-8.88559
변	-8.88643
▁의해	-8.88668
▁이제는	-8.88729
▁생각됩니다	-8.88772
생활	-8.8883
▁만약	-8.88857
▁항상	-8.88892
지원	-8.89073
인가	-8.89106
▁전국	-8.89262
▁고통	-8.8927
▁존재	-8.89286
▁순	-8.89314
참	-8.89404
애	-8.89547
쪽	-8.89591
경제	-8.89664
센터	-8.89802
▁쓰레기	-8.90046
▁민	-8.90112
▁않았	-8.90157
·	-8.9028
▁나라에서	-8.90289
▁접	-8.90315
▁아닌가요	-8.90326
▁아닙니까	-8.90516
▁찾	-8.90516
▁가지	-8.90653
▁소리	-8.907
가고	-8.90725
▁있어야	-8.90835
협	-8.90984
▁포함	-8.91001
▁조두순	-8.91036
▁몸	-8.91284
▁있으며	-8.91364
▁뽑	-8.9137
납	-8.91471
▁필요합니다	-8.91654
▁현실	-8.91711
아이	-8.9177
▁중요한	-8.92117
▁이해가	-8.92164
▁당연히	-8.92241
주는	-8.9226
▁근데	-8.9232
▁판결	-8.92338
합니까	-8.92345
▁중소기업	-8.9238
▁노동	-8.92623
▁했	-8.92641
▁해주	-8.92665
께	-8.92671
▁그만	-8.92733
▁외국	-8.92778
▁하며	-8.92974
▁답	-8.92994
▁삼성	-8.93008
ᆞ	-8.93105
▁아무런	-8.9311
하세요	-8.93181
▁게임	-8.93248
&	-8.93426
A	-8.93447
???	-8.93489
▁40	-8.93507
▁채용	-8.93557
▁강남	-8.93583
하신	-8.93676
다니	-8.93721
자를	-8.93737
겁니까	-8.93762
희	-8.93766
이지만	-8.93935
▁별	-8.94001
▁말을	-8.94258
▁부터	-8.94274
▁놀	-8.94335
보면	-8.94505
권을	-8.9455
▁사회적	-8.94649
▁기술	-8.94706
▁친	-8.94742
▁늘	-8.94798
치고	-8.94838
▁추가	-8.9499
▁기간	-8.95098
▁잠	-8.95177
▁대체	-8.95215
▁하게	-8.95527
▁사람을	-8.95541
▁발표	-8.95554
▁가진	-8.9558
▁요청	-8.95606
▁당시	-8.95658
▁요	-8.95726
▁경기	-8.96009
▁모르는	-8.96086
▁특	-8.96192
▁이유는	-8.96296
짓	-8.96335
조사	-8.96345
▁결	-8.96371
언	-8.96389
돌	-8.96393
▁돌	-8.96422
행위	-8.96516
▁목	-8.96559
▁등등	-8.9656
▁[	-8.96589
▁받아야	-8.96602
▁올라	-8.96679
▁땅	-8.96716
▁전부	-8.96743
있고	-8.96918
▁11	-8.96922
▁남북	-8.9718
▁최	-8.97246
▁개혁	-8.9738
▁앞	-8.97483
생각	-8.97557
▁동물	-8.97624
장이	-8.9769
하도록	-8.97719
i	-8.97734
▁없을	-8.97806
제를	-8.9781
▁당신	-8.97844
▁위험	-8.9787
▁부족	-8.97887
▁있으면	-8.97888
▁팔	-8.97901
▁같	-8.97996
▁자녀	-8.97999
▁체	-8.98036
▁작은	-8.98291
S	-8.9845
▁증거	-8.98475
▁상황이	-8.98554
▁재판	-8.98627
▁없애	-8.98733
백	-8.9881
▁힘들어	-8.98922
▁보험	-8.98948
▁집단	-8.98989
▁참여	-8.9903
▁판사	-8.99031
보험	-8.99077
수도	-8.99106
▁한다는	-8.99308
으나	-8.9931
▁들어가	-8.99412
▁이는	-8.9943
시장	-8.99461
시설	-8.99496
▁통일	-8.99605
▁삼	-8.99618
▁50	-8.99668
▁월	-8.99674
▁하기	-8.99677
▁안되	-8.99697
▁교통	-8.99728
▁자동차	-8.99815
30	-8.99925
▁입장	-8.99942
▁국가가	-8.99977
▁사이트	-9.00019
적이	-9.00191
▁범죄자	-9.00191
성이	-9.00214
측	-9.00239
▁저도	-9.00249
▁수많은	-9.00256
~~	-9.00318
▁있는지	-9.00378
학년	-9.00416
▁금융	-9.00436
▁지켜	-9.00533
일이	-9.00659
▁출	-9.00729
것은	-9.00888
▁믿	-9.00973
움	-9.01064
▁건설	-9.01084
▁태	-9.011
이라면	-9.01319
▁스스로	-9.01393
▁역사	-9.01431
▁놓	-9.01442
▁은행	-9.01521
자들이	-9.01577
셨	-9.01583
▁게	-9.01675
해라	-9.01773
O	-9.0179
%	-9.01888
▁즉	-9.01953
▁엄마	-9.02017
▁규정	-9.02025
▁주식	-9.02035
▁불안	-9.02059
▁희망	-9.02072
▁높	-9.02089
▁누	-9.02141
▁기대	-9.02191
▁대하여	-9.02205
▁기존	-9.02229
더라도	-9.0238
▁없다는	-9.02443
▁이루어	-9.02482
정권	-9.0249
▁버스	-9.02623
▁평등	-9.02678
징	-9.02713
▁부산	-9.02723
칠	-9.02733
▁포	-9.02847
▁주고	-9.02881
▁끝	-9.02968
시키고	-9.02987
▁따라서	-9.0303
송	-9.03072
k	-9.03118
▁있지	-9.03182
c	-9.03201
장을	-9.03254
▁역	-9.03289
학교	-9.03289
▁19	-9.03291
▁개발	-9.0336
▁주변	-9.03425
밖에	-9.03493
▁만든	-9.03507
▁운전	-9.03514
사업	-9.03538
▁혜택을	-9.03587
▁올립니다	-9.03675
▁조치	-9.03732
▁200	-9.03819
▁의견	-9.03873
광	-9.03968
▁제안	-9.03975
접	-9.04066
같이	-9.04093
▁주십시오	-9.04134
▁심지어	-9.04147
받는	-9.04166
D	-9.04194
사는	-9.042
▁현장	-9.04243
▁문제는	-9.04293
I	-9.04344
하시	-9.04369
▁지금까지	-9.04433
▁상태	-9.04506
▁밝혀	-9.04548
▁대통령이	-9.04632
▁경우가	-9.04632
명이	-9.04803
▁여기	-9.04866
▁못하게	-9.04994
투	-9.04997
▁받은	-9.05026
▁문제를	-9.05067
▁문화	-9.05101
▁생각을	-9.05117
▁우리는	-9.0513
너	-9.05144
▁점점	-9.05394
는건	-9.05404
▁연락	-9.05496
였습니다	-9.05614
치는	-9.0562
▁쉽게	-9.05652
▁올해	-9.05717
쓰	-9.0581
▁맞는	-9.0593
능	-9.05953
님들	-9.06043
▁출산	-9.06062
▁어찌	-9.06112
B	-9.06186
▁독	-9.06239
했는데	-9.06301
▁강력한	-9.06344
▁보는	-9.06427
는것	-9.06435
P	-9.06445
동안	-9.06457
위원회	-9.06493
▁아버지	-9.06521
▁직업	-9.06547
▁버	-9.06581
었다	-9.06637
겠	-9.06884
▁부정	-9.0698
▁주시기	-9.0709
았	-9.0717
▁수준	-9.07303
▁싶	-9.07325
가요	-9.07412
더니	-9.07506
▁부탁	-9.07528
존	-9.07717
줘야	-9.07747
T	-9.07758
른	-9.07787
▁국민은	-9.07794
▁있었습니다	-9.07804
▁분들이	-9.07864
▁많아	-9.07872
▁나오	-9.07933
▁구속	-9.07992
▁좋아	-9.08048
▁민원	-9.08146
▁15	-9.08193
▁민주당	-9.08253
▁검토	-9.08268
▁폭력	-9.08488
로서	-9.08508
거라	-9.0854
▁기준	-9.08571
녀	-9.0863
으로서	-9.08643
▁수도	-9.08653
▁전쟁	-9.08739
먹고	-9.08746
▁금액	-9.08804
▁그대로	-9.08815
▁뿐	-9.08829
경우	-9.08925
▁극	-9.09012
▁추진	-9.09022
▁이어	-9.09023
처리	-9.09039
▁듭니다	-9.09149
의원	-9.09181
▁폐	-9.09198
▁평생	-9.09241
▁때문입니다	-9.09242
셔서	-9.09341
▁책임을	-9.09354
▁관계	-9.09436
범죄	-9.09601
▁가져	-9.09793
공사	-9.09816
사를	-9.09828
▁된다고	-9.0983
▁포기	-9.09849
▁폭	-9.09874
듯이	-9.0991
▁표	-9.0993
▁서민들	-9.10088
▁도움이	-9.10115
▁동안	-9.10201
▁산업	-9.10217
규	-9.1025
공무원	-9.10285
▁시대	-9.10295
는거	-9.10395
▁탈	-9.10462
▁않도록	-9.10599
혹	-9.10634
착	-9.10642
소득	-9.10718
관련	-9.10718
▁세금으로	-9.10736
▁부모님	-9.10766
▁우리나라는	-9.10887
하던	-9.11069
▁보여	-9.11315
▁가는	-9.11355
▁업체	-9.11442
▁국가에서	-9.11518
▁올림픽	-9.11519
▁잡아	-9.11612
▁일하는	-9.11634
▁정의	-9.11638
▁정규직	-9.11709
년이	-9.1172
▁진정	-9.11802
▁않으면	-9.11819
▁분명	-9.11826
▁주차	-9.11838
▁않아	-9.11862
▁전세	-9.11907
▁몰	-9.11945
▁돌려	-9.1199
▁시간이	-9.1203
▁담배	-9.12074
았습니다	-9.12162
률	-9.12395
올	-9.1248
▁환자	-9.12509
▁성인	-9.12555
활동	-9.12639
▁갖	-9.127
▁모르	-9.127
▁임	-9.12755
께서	-9.12793
새	-9.12833
▁보도	-9.12834
죽	-9.12866
혼	-9.12871
▁정당	-9.12936
▁채	-9.12971
겠습니까	-9.12996
금을	-9.13081
가족	-9.1313
g	-9.1324
서를	-9.13307
▁택시	-9.13318
▁까지	-9.13337
▁젊은	-9.1344
▁알려	-9.13588
졌	-9.13621
탁	-9.13628
덕	-9.13667
▁암	-9.13789
▁법률	-9.13894
카	-9.13901
▁라는	-9.13986
▁울	-9.14003
▁실시	-9.1402
▁하시	-9.14115
▁활동	-9.14142
▁써	-9.14209
욕	-9.14259
비를	-9.14268
패	-9.14347
어요	-9.14347
▁드립니다	-9.14352
겠죠	-9.14511
▁치료	-9.14548
플	-9.14568
▁매일	-9.14833
▁투표	-9.14906
▁쉬	-9.14952
▁전환	-9.1508
▁종교	-9.15152
관계	-9.15228
않	-9.15267
▁도입	-9.15283
▁급여	-9.15311
▁딸	-9.15407
효	-9.1541
찬	-9.15538
▁여론	-9.1555
▁운동	-9.15567
▁시급	-9.1557
▁자살	-9.15604
▁특별	-9.15802
▁보니	-9.15903
▁공사	-9.1591
▁생명	-9.15921
▁세상	-9.161
▁제공	-9.16143
▁올	-9.16266
갑니다	-9.16349
하는게	-9.16415
끼	-9.16436
▁높은	-9.16443
▁패	-9.16525
▁국제	-9.16808
▁없어서	-9.16816
▁준	-9.16825
▁인식	-9.16856
▁얼마	-9.16962
▁드	-9.16996
▁웃	-9.17074
▁이번에	-9.17121
자의	-9.17126
▁합	-9.17184
이니	-9.17187
▁자리	-9.173
▁사망	-9.17317
팀	-9.17329
려면	-9.17333
▁직원들	-9.17341
▁민주주의	-9.17374
였	-9.17384
▁혹은	-9.1739
볼	-9.17554
▁나라의	-9.17624
할때	-9.17665
갑	-9.1768
▁지금은	-9.17691
▁행	-9.17872
져야	-9.17888
▁떠	-9.17965
받	-9.18009
▁돌아가	-9.18135
▁이름	-9.18201
▁국가의	-9.18216
알	-9.18236
▁등의	-9.18289
▁쓸	-9.18305
뿐	-9.18435
▁고려	-9.18454
▁..	-9.18515
▁핵	-9.18562
단체	-9.18564
▁판	-9.18623
읍니다	-9.18623
극	-9.18628
▁되었	-9.18661
봐	-9.18697
▁생각해	-9.18914
코	-9.19006
▁벌어	-9.19048
술	-9.19067
▁어린	-9.1915
50	-9.19181
▁새로운	-9.19203
대통령	-9.19215
▁있기	-9.19243
▁합니까	-9.1928
▁공공	-9.19284
▁넘어	-9.19426
▁환	-9.19439
▁불편	-9.19441
테	-9.19485
▁전문	-9.19537
수당	-9.19539
▁충	-9.19548
던지	-9.1959
▁납부	-9.19601
▁전기	-9.19748
▁않게	-9.1975
걸로	-9.19993
▁차라리	-9.20031
▁빼	-9.20038
▁빚	-9.20049
▁법원	-9.20082
C	-9.2016
▁여러분	-9.20204
▁촛불	-9.20257
따	-9.203
봅니다	-9.2039
▁혼자	-9.20394
l	-9.20394
▁구조	-9.20395
확	-9.20449
퇴	-9.20455
▁의심	-9.20521
▁따	-9.20545
▁사과	-9.20559
기는	-9.20612
▁도와주세요	-9.20634
기사	-9.20665
▁있었	-9.20695
▁북	-9.20719
복지	-9.20728
되었습니다	-9.20767
답	-9.20784
▁크	-9.20788
▁이유가	-9.20876
▁우리의	-9.20895
▁나오는	-9.20904
대출	-9.20988
▁국민들에게	-9.2101
▁만드는	-9.21013
▁건물	-9.21103
▁역시	-9.21109
▁원인	-9.21184
▁공매도	-9.21226
시다	-9.21315
▁하였습니다	-9.21387
▁만큼	-9.21393
▁등을	-9.21394
▁구매	-9.2145
▁평가	-9.21494
검	-9.2151
▁된다	-9.21534
▁공급	-9.21551
▁되어야	-9.21578
소리	-9.2159
된다	-9.2164
고있습니다	-9.21643
▁위협	-9.21657
▁담	-9.21738
총	-9.21767
숙	-9.21773
▁절	-9.2185
▁만들고	-9.21874
▁들었습니다	-9.21981
▁메	-9.22024
찰	-9.22123
내고	-9.22132
▁자격	-9.22144
▁국민들을	-9.22213
상황	-9.22504
겠다고	-9.22567
서는	-9.22773
▁인사	-9.22814
수있는	-9.22828
▁음주운전	-9.22948
택	-9.22996
▁용	-9.22998
억원	-9.23008
시키는	-9.23079
M	-9.23178
▁죽어	-9.23181
▁시스템	-9.23235
▁공무원들	-9.23338
▁근	-9.23455
b	-9.23609
▁조작	-9.23647
하시고	-9.23677
▁간곡히	-9.23792
주시	-9.23824
있는데	-9.23907
▁전체	-9.23927
▁크게	-9.23999
▁노인	-9.2402
있다	-9.24122
▁밤	-9.24142
▁2017	-9.24177
해야합니다	-9.24221
▁지정	-9.24226
▁철	-9.24226
N	-9.24305
밀	-9.24306
▁있다면	-9.24335
▁안정	-9.2434
없고	-9.24366
▁김정은	-9.24383
놈	-9.24385
▁힘들게	-9.24472
▁국민청원	-9.24518
▁사형	-9.24551
근무	-9.2459
▁아니라고	-9.24677
▁4.	-9.24765
사람들	-9.24839
꺼	-9.2486
▁따른	-9.24862
▁싶은	-9.24933
텐데	-9.25
시대	-9.25074
▁수십	-9.25085
▁싸	-9.25134
▁영업	-9.25188
사가	-9.25193
▁정상	-9.25243
▁그동안	-9.25244
u	-9.25253
▁최고	-9.25419
>	-9.25454
▁다니	-9.25521
겠다	-9.25556
교사	-9.25623
.....	-9.2563
▁고소	-9.25634
▁혜택	-9.25757
▁이나라	-9.25775
으로써	-9.25778
만명	-9.25816
▁학생들	-9.25995
하려	-9.26025
▁정작	-9.26065
▁커	-9.26104
▁자신	-9.26173
김	-9.26179
▁집을	-9.26214
▁범죄를	-9.26262
▁영어	-9.26303
▁그래도	-9.26318
수를	-9.26372
▁희생	-9.26413
년에	-9.26421
▁학원	-9.26461
일을	-9.26495
아니	-9.26501
h	-9.26511
11	-9.26519
부분	-9.26525
에게는	-9.26675
▁아래	-9.26776
자금	-9.26797
▁이전	-9.26828
▁위하여	-9.26916
▁지금도	-9.26956
▁분노	-9.26988
▁흡연	-9.2702
▁관한	-9.27089
했다고	-9.27146
▁심각한	-9.27187
▁변경	-9.27258
▁뜻	-9.27514
▁카드	-9.27532
E	-9.2755
▁아들	-9.27637
마저	-9.27713
전에	-9.2778
▁밥	-9.27819
▁모르겠습니다	-9.27938
▁설명	-9.28027
▁시설	-9.28049
▁정책이	-9.28109
▁꿈	-9.2815
천만원	-9.28187
▁서비스	-9.28193
▁내용이	-9.28195
▁반대합니다	-9.28205
▁폐쇄	-9.28224
▁늦	-9.28279
시험	-9.28411
▁설	-9.28454
▁성폭행	-9.28462
▁살기	-9.28523
▁담당	-9.28599
▁인천	-9.2863
원이	-9.28747
자들은	-9.28802
▁국민에게	-9.28836
했고	-9.28898
▁정보	-9.29047
▁바뀌	-9.29058
▁안보	-9.29147
▁원하는	-9.2925
▁국회의원들	-9.29266
특	-9.29297
또한	-9.29348
돼	-9.29366
▁엄청난	-9.29377
▁인구	-9.29432
▁부과	-9.29527
▁하니	-9.29534
▁주십시요	-9.29686
▁거주	-9.29728
공단	-9.29847
검사	-9.2986
가서	-9.29977
▁라고	-9.30096
▁소비자	-9.30116
▁힘들	-9.3016
▁증가	-9.3033
▁상승	-9.30389
▁임대	-9.30397
▁비용	-9.30418
▁내고	-9.30543
하라고	-9.30571
▁우리나라의	-9.30602
▁바꾸	-9.30622
▁도박	-9.30648
▁작년	-9.30682
▁자식	-9.30693
▁무시	-9.30719
▁그게	-9.30802
황	-9.30861
경찰	-9.30872
▁안녕하십니까	-9.30943
혈	-9.30983
▁스트레스	-9.30986
▁머리	-9.31003
▁중요	-9.31045
▁낳	-9.31071
▁사법부	-9.3113
▁조건	-9.3119
폭	-9.3119
년동안	-9.31242
▁틀	-9.31275
거래	-9.3131
▁확대	-9.31349
▁피해자가	-9.31502
▁권리	-9.31616
▁대한민국은	-9.31676
▁특정	-9.31677
▁시간을	-9.317
▁장애	-9.31739
페	-9.31763
▁거부	-9.31793
었는데	-9.31812
▁함	-9.31851
법을	-9.31943
▁노후	-9.32067
▁고객	-9.32073
▁노동자	-9.32148
▁아이들을	-9.32155
▁일정	-9.32159
족	-9.32183
▁행복	-9.32223
자로	-9.32226
▁수술	-9.32238
▁듣	-9.32293
▁자체	-9.32312
▁계획	-9.32389
▁얼굴	-9.32491
산업	-9.32524
연금	-9.32689
▁생산	-9.32691
비용	-9.32712
▁오래	-9.32827
▁저출산	-9.32838
▁단체	-9.32961
▁했는데	-9.32961
▁훈련	-9.33073
▁이것은	-9.33285
겠지요	-9.33333
▁가치	-9.33549
▁모두가	-9.3355
▁한달	-9.33567
▁선진국	-9.33615
해주시기	-9.33654
분들이	-9.33704
▁토	-9.33711
▁...	-9.33734
▁조직	-9.33758
▁믿고	-9.33776
▁소방	-9.33841
▁바라	-9.33858
보호	-9.33926
하는것	-9.34004
▁그저	-9.34024
▁필요하다고	-9.34031
▁수입	-9.34108
보다는	-9.34188
▁마찬가지	-9.34225
원을	-9.34298
▁제도를	-9.34413
▁수가	-9.34507
▁코	-9.3454
▁나서	-9.34544
들에	-9.3457
▁사진	-9.3459
▁주민	-9.34629
▁방치	-9.34682
12	-9.34886
▁출소	-9.35045
▁서류	-9.35123
▁군인	-9.35129
자리	-9.35149
▁그러면	-9.35192
구역	-9.35193
▁감독	-9.35393
세대	-9.35421
▁창	-9.35499
+	-9.35517
벽	-9.35587
▁잔	-9.35616
기준	-9.3567
▁마시고	-9.35709
▁60	-9.35738
▁축	-9.358
시키	-9.35824
▁경기도	-9.35863
→	-9.35891
n	-9.35925
▁있으니	-9.35925
▁관심	-9.36013
된다고	-9.36046
▁휴	-9.36129
겠다는	-9.36154
▁기사를	-9.36174
▁행사	-9.36225
아서	-9.36283
▁고민	-9.36313
▁침해	-9.36413
블	-9.36436
▁당신들	-9.3657
년전	-9.36582
곤	-9.36669
▁발언	-9.36699
넘	-9.36751
차량	-9.36761
▁그들의	-9.36781
봉	-9.3691
▁학생들이	-9.36947
▁보수	-9.36998
▁구입	-9.37037
▁나는	-9.37099
아야	-9.37198
▁방문	-9.37227
▁부부	-9.37257
을때	-9.37281
맞	-9.37306
▁상황에서	-9.37363
▁어렵	-9.37423
▁충분히	-9.37433
▁주시길	-9.37468
▁오르	-9.37491
▁나와	-9.37495
▁출근	-9.37548
▁삶	-9.37602
▁비정규직	-9.37628
▁밀	-9.37742
점을	-9.37918
▁솔직히	-9.37948
▁전에	-9.38005
▁성장	-9.38063
이든	-9.38119
▁한다면	-9.3815
▁인하여	-9.3829
▁듣고	-9.38372
▁아이가	-9.38438
▁수능	-9.38456
▁저희는	-9.38515
▁그것도	-9.38751
▁대한민국이	-9.38798
아파트	-9.38833
때마다	-9.38839
▁어떠한	-9.38854
▁미래를	-9.38892
▁선수들	-9.38917
▁하는지	-9.38946
▁인력	-9.38994
야합니다	-9.39041
▁받았	-9.39159
▁보이	-9.39169
사람이	-9.39172
▁터	-9.39209
▁작성	-9.39232
▁목적	-9.3933
▁법적	-9.39579
▁안된다고	-9.39621
곡	-9.39699
▁사실을	-9.39703
G	-9.39749
▁제외	-9.39887
▁문제점	-9.39912
▁병역	-9.39966
com	-9.39977
잖아요	-9.40037
주십시오	-9.40146
▁이것	-9.40158
▁올리	-9.40189
▁초등학교	-9.40343
가지	-9.40414
상태	-9.40463
......	-9.40487
▁형	-9.40554
삼	-9.40579
▁적폐청산	-9.40587
▁반복	-9.40654
와서	-9.40727
▁매년	-9.40749
▁광	-9.40866
▁표현	-9.40881
▁https	-9.40922
▁근로	-9.40986
▁성범죄	-9.40989
▁인원	-9.40991
▁장기	-9.41078
▁수업	-9.41104
▁의무를	-9.41114
▁풀	-9.41182
▁공정	-9.41213
▁도시	-9.41236
등을	-9.41408
▁마치	-9.41417
싶	-9.41429
▁고등학교	-9.41485
▁저런	-9.4157
▁사항	-9.41573
▁상황입니다	-9.41691
받을	-9.41748
▁가서	-9.41753
▁아닌가	-9.4185
▁거리	-9.41855
육	-9.41916
▁합의	-9.41918
▁방법	-9.41949
지않	-9.42124
▁혈세	-9.42166
중인	-9.42198
▁생계	-9.42315
y	-9.4234
▁기회	-9.42354
▁통과	-9.42396
▁18	-9.42398
받아	-9.42478
▁방법이	-9.42494
▁뉴스를	-9.42561
▁묻	-9.42599
명을	-9.4263
▁기억	-9.42665
▁등록	-9.42707
▁불가능	-9.42726
없다	-9.42799
▁물가	-9.42833
▁모습	-9.42867
▁연봉	-9.42878
▁A	-9.42884
▁최소	-9.42909
r	-9.42943
,,,	-9.42952
▁여성가족부	-9.42956
▁그리	-9.43014
▁처럼	-9.43082
에대한	-9.43089
00	-9.4312
▁실제	-9.43155
했다는	-9.43156
▁둘	-9.43159
▁광고	-9.43232
▁http	-9.43253
했으면	-9.43428
▁소유	-9.43432
▁어머니	-9.4347
거죠	-9.43481
▁나쁜	-9.43523
구나	-9.43592
▁생각하는	-9.4361
▁정도로	-9.43674
▁힘이	-9.43698
최	-9.43706
▁두고	-9.43715
▁공장	-9.43723
▁탄핵	-9.43745
내용	-9.43837
환경	-9.43853
세력	-9.43917
자에게	-9.44011
가격	-9.4407
활	-9.44078
시민	-9.44082
▁송	-9.44087
몰	-9.44171
▁남편	-9.44238
▁갑자기	-9.44258
▁대한민국을	-9.4431
▁누구나	-9.44374
하려는	-9.44513
하나요	-9.44528
▁알아	-9.44567
느	-9.44582
하네요	-9.44601
임을	-9.44613
분이	-9.44621
널	-9.44824
쯤	-9.44887
▁악용	-9.44974
x	-9.4498
▁달라	-9.45061
▁기다리	-9.45092
▁도와	-9.4512
시에	-9.45158
▁격	-9.45202
▁제출	-9.45359
명의	-9.45366
좋	-9.45377
▁승	-9.45378
▁낭비	-9.45441
▁빠	-9.45477
▁이익	-9.45717
▁!	-9.45776
▁광주	-9.45813
▁지금의	-9.45822
▁졸업	-9.4583
년도	-9.45854
▁위반	-9.45862
▁그때	-9.4591
짐	-9.45931
직원	-9.45963
에선	-9.4597
▁사태	-9.4603
▁장난	-9.46088
려는	-9.46131
▁집에	-9.46159
▁선생님	-9.46162
프로	-9.46183
리를	-9.46213
▁다니는	-9.46215
▁고발	-9.46234
▁철저히	-9.4627
▁의미	-9.46355
빠	-9.46469
▁겪	-9.46515
▁학교에서	-9.46582
▁이하	-9.46608
▁친구	-9.46746
▁법안	-9.46757
▁단지	-9.46784
▁아예	-9.46793
▁이것이	-9.46802
신청	-9.46836
땅	-9.46859
▁대상	-9.46886
방송	-9.47119
▁봐	-9.47127
계약	-9.47142
득	-9.47175
▁수익	-9.47314
하겠습니다	-9.47472
▁넣	-9.475
▁자국민	-9.47507
▁거래소	-9.47529
▁존경하는	-9.47615
▁줄어들	-9.47626
하다가	-9.47658
19	-9.4769
귀	-9.47754
▁답답	-9.47894
▁시민들	-9.47916
▁심각	-9.47924
암	-9.47936
▁자기들	-9.47953
▁쓰는	-9.47954
학생	-9.47995
▁자유한국당	-9.4802
▁받았습니다	-9.48103
제가	-9.48112
▁않을까요	-9.48272
시켜야	-9.48281
▁이사	-9.48346
▁대신	-9.48414
▁영상	-9.48458
▁풀어	-9.48504
▁언제까지	-9.48509
▁있습니까	-9.48533
▁주거	-9.48676
▁누군가	-9.4871
▁소통	-9.48759
▁실제로	-9.48796
▁대응	-9.48854
하다는	-9.48907
▁음주	-9.48938
선수	-9.49023
오는	-9.49025
▁모르고	-9.49112
버린	-9.49187
▁낮	-9.49259
▁사람입니다	-9.49304
든지	-9.49326
▁근거	-9.49395
조치	-9.49398
▁능력	-9.4944
적이고	-9.49473
하고있습니다	-9.49597
는것이	-9.49611
없습니다	-9.49726
아닌	-9.49733
팔	-9.49823
▁했다	-9.49868
▁신뢰	-9.49927
▁법으로	-9.49946
▁그래야	-9.50051
▁소년법	-9.5011
▁하시는	-9.5012
▁검	-9.50276
왔습니다	-9.50282
▁면	-9.50301
▁알바	-9.50307
_	-9.50323
사항	-9.50342
▁변호사	-9.50375
주시기	-9.50502
하려고	-9.5059
▁한사람	-9.50823
▁기초	-9.50848
▁생각하고	-9.50848
대책	-9.509
▁요청합니다	-9.50937
▁아침	-9.50941
▁시켜	-9.51028
문화	-9.51029
▁대책을	-9.51122
하자	-9.51134
지지	-9.51158
▁과정	-9.51397
기로	-9.51411
▁애들	-9.51519
▁계시	-9.5155
되었	-9.517
ᅲᅲ	-9.51768
▁허용	-9.5178
리라	-9.51805
함을	-9.51837
▁징역	-9.51865
틀	-9.51873
▁가고	-9.51884
▁아니다	-9.51904
▁끝나	-9.51949
▁아무것도	-9.51959
▁창출	-9.51988
▁제일	-9.52038
누	-9.52057
할수있는	-9.52083
▁쓰고	-9.52166
▁머	-9.52185
▁찍	-9.52187
농	-9.52193
▁사건이	-9.52231
주시길	-9.52232
▁사람들에게	-9.52255
▁네이버	-9.52263
브	-9.52362
▁지키	-9.52382
▁갖고	-9.52533
▁부당	-9.52542
▁그걸	-9.52577
▁힘을	-9.52606
힌	-9.52743
▁남녀	-9.5284
v	-9.52881
▁뿐만	-9.52901
▁취지	-9.52918
▁시청	-9.52982
▁내용을	-9.53027
해보	-9.53047
▁사이	-9.53051
▁인권을	-9.53064
응	-9.53106
흥	-9.5313
▁사람들을	-9.53172
▁엄청	-9.53202
▁말입니다	-9.53234
▁힘듭니다	-9.53301
▁줄여	-9.53446
f	-9.53449
▁차단	-9.53483
▁약속	-9.53524
놓	-9.53531
▁아는	-9.53557
▁허가	-9.53576
▁공약	-9.53577
▁똑같은	-9.53601
등급	-9.53643
▁위치	-9.53682
▁퇴직	-9.53733
신고	-9.5377
로써	-9.53814
폐지	-9.54082
▁교육을	-9.54086
▁사건을	-9.54094
르고	-9.54099
▁우려	-9.54101
▁보입니다	-9.54107
▁데	-9.54171
어도	-9.5419
▁지원을	-9.54194
제한	-9.54287
▁넘는	-9.54299
▁않습니까	-9.54302
▁개인의	-9.54306
▁상대	-9.54317
▁온갖	-9.54348
화를	-9.54357
▁간절히	-9.54388
▁참고	-9.54393
건데	-9.5442
▁협박	-9.54507
▁소송	-9.54547
▁자신이	-9.54572
▁여러가지	-9.54612
▁가능한	-9.54617
겟	-9.54669
째	-9.54701
▁연구	-9.54727
▁일하고	-9.5481
▁외교	-9.54823
▁마음이	-9.5485
▁같다	-9.549
▁경쟁	-9.54912
▁자영업자	-9.54918
▁똑같이	-9.54969
▁자연	-9.54975
▁정치인	-9.55045
▁현실입니다	-9.55101
▁침	-9.55115
▁어려움	-9.55147
었던	-9.5519
자들의	-9.55206
필	-9.55242
▁옆	-9.55261
▁변화	-9.55321
▁너	-9.55376
▁대구	-9.55406
▁떠나	-9.55411
▁조정	-9.5545
▁기회를	-9.55517
하라는	-9.5558
답니다	-9.5565
▁현대	-9.55654
▁그들이	-9.5572
▁사랑	-9.55729
▁보기	-9.55807
▁동네	-9.55814
▁*	-9.55865
과정	-9.55894
▁실행	-9.55909
제로	-9.55921
▁살아야	-9.55966
주십시요	-9.5604
▁관계자	-9.5607
빨	-9.56087
▁않을까	-9.56099
▁출국금지	-9.562
시킬	-9.56214
칭	-9.56239
▁늘리	-9.56258
시켜주세요	-9.56264
w	-9.5628
▁제재	-9.56291
▁있음	-9.56295
커	-9.56364
▁못할	-9.56431
R	-9.56447
▁아동	-9.56501
▁지하철	-9.56538
▁얼마전	-9.56564
▁이젠	-9.56578
세금	-9.56593
졌습니다	-9.566
는것은	-9.56658
▁엄	-9.56709
▁이러	-9.56742
▁취소	-9.56828
5%	-9.56878
늘	-9.56905
▁봉사	-9.5699
셔	-9.57013
식으로	-9.57032
념	-9.57035
▁반성	-9.57067
임대	-9.5707
은행	-9.57095
▁홍보	-9.57108
▁지자체	-9.57112
▁아기	-9.57118
▁최소한	-9.57119
▁자주	-9.57265
▁삶을	-9.57271
▁겁니까	-9.57312
▁뒷	-9.57369
▁의견을	-9.57377
▁화재	-9.57393
▁원칙	-9.57397
▁훨씬	-9.57409
▁제품	-9.575
인상	-9.57526
금액	-9.57563
을까요	-9.57574
지않고	-9.57614
▁곳이	-9.57639
▁억울한	-9.57683
40	-9.57714
일까요	-9.57779
갔	-9.57826
▁운행	-9.57856
▁알게	-9.57941
▁보여주	-9.57969
골	-9.57981
기위해	-9.58124
쉬	-9.58137
험	-9.58171
같	-9.58202
▁공공기관	-9.58453
력이	-9.58606
▁국방	-9.58685
news	-9.58744
▁대부분의	-9.58891
▁낸	-9.58927
▁더불어	-9.58938
냐고	-9.58947
▁도움을	-9.58976
▁어제	-9.58977
▁싫	-9.58997
www	-9.59108
평가	-9.59118
▁반영	-9.59138
▁0	-9.59145
▁스포츠	-9.59158
▁의지	-9.59166
해주시고	-9.59167
▁배우	-9.59169
▁맡	-9.59203
▁건축	-9.5922
▁<	-9.59243
▁가야	-9.59352
▁잊	-9.59357
▁야	-9.59389
됨	-9.59471
한것	-9.59487
▁내부	-9.59499
▁보면서	-9.5953
▁세대	-9.59587
▁아시	-9.59634
하는건	-9.59635
▁주인	-9.5968
차례	-9.597
▁다양한	-9.59712
대상	-9.59752
▁나온	-9.59813
▁처벌이	-9.59905
로부터	-9.60089
▁검색	-9.60094
▁대한민국에서	-9.60094
▁없었	-9.60183
▁잇	-9.60198
▁그럴	-9.60202
션	-9.60204
▁곧	-9.60244
▁대해서는	-9.60286
▁민간	-9.60375
▁효과	-9.60403
▁받게	-9.60461
▁하늘	-9.60478
▁사람들의	-9.60516
보니	-9.60533
점이	-9.60594
한데	-9.60623
듭니다	-9.60647
기만	-9.60704
▁평균	-9.60753
▁들고	-9.60777
하여야	-9.60846
▁바람	-9.60893
▁양심	-9.60896
균	-9.60935
18	-9.61007
▁바꿔	-9.61019
▁뭘	-9.61023
▁적어도	-9.61135
▁사고가	-9.61144
▁경험	-9.61308
▁녹	-9.61322
▁있을까요	-9.61329
▁입장에서	-9.61362
둥	-9.6138
많	-9.61386
▁생기	-9.61427
▁거짓	-9.61471
▁퍼	-9.61491
▁슬	-9.61497
▁못합니다	-9.61499
십	-9.61502
것이다	-9.61574
세를	-9.61636
▁방안	-9.61654
▁일단	-9.61667
▁사유	-9.61695
지말고	-9.6173
▁빠른	-9.61763
고있는	-9.61784
▁비해	-9.61801
^^	-9.61841
▁고생	-9.61844
▁경찰서	-9.619
▁진정한	-9.61951
▁관련된	-9.61969
▁그러니	-9.61972
F	-9.61973
▁놓고	-9.62006
▁국민세금	-9.62076
▁이거	-9.62112
허	-9.62209
렸	-9.62213
▁24	-9.62239
▁한마디	-9.6229
▁미성년자	-9.62392
▁모습을	-9.62395
뜨	-9.62425
▁내놓	-9.62457
▁늘어	-9.62485
▁견	-9.62489
▁주말	-9.62535
▁국방의	-9.62545
력을	-9.62566
정보	-9.62579
수록	-9.62697
염	-9.62702
▁한명	-9.62727
▁만나	-9.62734
훈	-9.62749
즈	-9.6279
▁대처	-9.62809
혜	-9.62856
때는	-9.62866
▁가게	-9.62871
곳에	-9.62891
▁그나마	-9.62929
개발	-9.62951
공항	-9.62957
▁자료	-9.63024
▁법적으로	-9.63046
▁강력히	-9.63066
하는지	-9.63072
▁축구	-9.6311
▁붙	-9.63117
객	-9.63164
▁집중	-9.63223
휴	-9.63232
▁떨어지	-9.6325
▁긴	-9.63329
▁그들은	-9.63396
▁완	-9.63415
때까지	-9.63439
▁내년	-9.63534
▁평범한	-9.63549
▁숙	-9.63585
▁일입니다	-9.63618
▁않았습니다	-9.63636
주시고	-9.63639
둘	-9.63733
▁필	-9.63764
쟁	-9.63811
운동	-9.63932
▁시점	-9.63942
▁삭제	-9.63955
▁국정	-9.63989
했지만	-9.64004
▁그에	-9.64006
합시다	-9.64044
다보니	-9.6408
멸	-9.64087
▁적극	-9.64153
▁아빠	-9.64209
▁다들	-9.64232
▁나올	-9.64255
▁청산	-9.64303
0%	-9.6432
▁성추행	-9.6438
▁권리를	-9.64394
▁필요가	-9.64408
▁활용	-9.64413
에겐	-9.64454
가능	-9.64468
L	-9.64538
낸	-9.64568
▁본인이	-9.6457
▁죄를	-9.64571
▁사람의	-9.64574
▁대형	-9.64592
▁대다수	-9.64647
▁돈으로	-9.64676
▁주민들	-9.64678
▁행태	-9.64743
▁신경	-9.64755
▁맘	-9.64789
만한	-9.64796
더라구요	-9.64818
투자	-9.64823
싶습니다	-9.64868
▁성매매	-9.64911
▁청년들	-9.64915
▁제주도	-9.6492
이었습니다	-9.64964
▁한반도	-9.64969
▁없도록	-9.65206
----------------	-9.65309
▁고통을	-9.65314
▁가족들	-9.65374
▁사례	-9.65388
▁북한의	-9.65433
▁피해가	-9.65433
▁만들어주세요	-9.65435
스러운	-9.65446
위에	-9.65483
▁항	-9.65499
▁하루하루	-9.65522
▁뭐가	-9.65527
▁덜	-9.65527
▁일은	-9.65566
▁교복	-9.65587
▁맞지	-9.65593
▁물건	-9.6562
드립니다	-9.65679
▁위해서는	-9.65733
▁경력	-9.65744
처벌	-9.65761
▁사법	-9.65787
▁받을수	-9.6579
▁의혹	-9.65876
위를	-9.65918
▁사람도	-9.65947
▁일자리를	-9.66072
수있게	-9.66227
▁수당	-9.66296
련	-9.66308
▁하는게	-9.66332
▁음식	-9.66341
촌	-9.66348
▁어린이	-9.66367
▁복무	-9.66381
많은	-9.66399
▁늘려	-9.6642
▁없는데	-9.66445
하고자	-9.66456
▁단순	-9.66502
기술	-9.66531
▁성적	-9.66561
▁제시	-9.66611
주셨으면	-9.66634
▁키우는	-9.66663
▁어쩌	-9.66691
껏	-9.66731
▁도저히	-9.66847
▁학부모	-9.66877
▁하던	-9.66941
메	-9.66962
▁물어	-9.66962
빙	-9.67055
▁상담	-9.67109
완	-9.67133
▁의한	-9.67209
안전	-9.6721
▁구성	-9.67238
▁하는것	-9.67335
받은	-9.67338
▁제기	-9.67363
폭력	-9.6741
케	-9.67413
▁제정	-9.67428
▁안내	-9.67505
대를	-9.6751
▁강력하게	-9.67581
탕	-9.67636
▁특검	-9.67665
고요	-9.67669
▁입주	-9.67785
둔	-9.67862
▁상식	-9.67896
▁찬성	-9.679
사이트	-9.67915
▁아님	-9.67933
▁최저시급	-9.67986
ᆢ	-9.6808
▁시기	-9.68192
나오	-9.6826
▁둔	-9.68298
▁완전	-9.68333
▁한심	-9.68347
하지않	-9.6848
▁연장	-9.68559
▁키우	-9.68571
▁여성들	-9.6863
▁경찰이	-9.68637
년을	-9.68742
▁많고	-9.68755
▁나중에	-9.68884
▁그것이	-9.68968
▁없었습니다	-9.69025
뒤	-9.6904
가며	-9.69045
촉	-9.69065
▁최저	-9.69149
바랍니다	-9.69156
▁안전을	-9.6917
▁서울시	-9.69179
▁너무나도	-9.69184
▁안하고	-9.69246
감을	-9.69267
▁자금	-9.69305
해주고	-9.69351
▁수도권	-9.69363
었고	-9.69373
받지	-9.69374
치료	-9.69388
▁달리	-9.69407
납니다	-9.69447
▁평	-9.69461
▁실망	-9.6948
▁자체가	-9.69493
꾼	-9.69506
번호	-9.69534
간의	-9.69642
는것도	-9.69644
▁마땅	-9.69668
조원	-9.6975
등등	-9.69891
▁일어나	-9.69926
▁절차	-9.70004
▁염	-9.70026
▁성폭력	-9.70056
▁된다면	-9.70057
▁높아	-9.70121
**	-9.70188
혜택	-9.70237
▁뿌리	-9.70315
▁약자	-9.70345
것으로	-9.70346
▁정치인들	-9.70351
▁월세	-9.70389
스트	-9.70401
해주는	-9.70417
▁다시는	-9.7051
kr	-9.70566
▁좋을	-9.7061
쳤	-9.70665
햇	-9.70713
▁황	-9.70713
▁내리	-9.70743
금지	-9.70751
잘	-9.70756
물을	-9.7083
▁올바른	-9.70857
▁읽	-9.70909
▁여행	-9.70953
▁비판	-9.70984
▁노출	-9.71012
여성	-9.71014
▁넘어가	-9.71064
▁뛰어	-9.71074
▁게시판	-9.71078
▁퇴근	-9.71099
▁맞벌이	-9.71099
풍	-9.71105
하는거	-9.71265
▁성공	-9.71265
▁세월호	-9.71287
뿐만	-9.71384
립니다	-9.71394
맹	-9.71395
▁주셨으면	-9.71478
▁없으면	-9.71512
▁모아	-9.71587
▁민족	-9.71603
▁갑	-9.7164
▁실수	-9.71642
▁조사를	-9.71659
▁자랑	-9.71676
봄	-9.71679
옵니다	-9.71703
▁아마	-9.71731
▁보육	-9.71787
▁조선	-9.71904
▁요금	-9.71935
▁소음	-9.71939
▁것인지	-9.71988
▁상황에	-9.71992
반대	-9.71999
▁이익을	-9.72016
▁학대	-9.7203
드리	-9.72095
▁따로	-9.72097
▁것에	-9.72129
▁원합니다	-9.72175
분들은	-9.72176
▁안되고	-9.72231
▁보유	-9.72235
▁대비	-9.7224
▁최대	-9.72265
▁논란	-9.72276
너무	-9.72291
좌	-9.72291
대표	-9.72342
▁특수	-9.72381
▁세워	-9.72437
거라고	-9.72453
▁친구들	-9.72503
▁시위	-9.72551
▁자꾸	-9.72682
▁수행	-9.72692
▁나머지	-9.72704
▁바라는	-9.72752
▁중단	-9.72772
▁경영	-9.7278
▁꼴	-9.72788
▁눈물	-9.72844
▁장사	-9.72879
▁상황을	-9.72884
▁해야합니다	-9.72906
었으면	-9.72914
음에도	-9.72924
▁겨우	-9.72953
▁하세요	-9.72976
▁저녁	-9.73007
청원	-9.731
▁방지	-9.73121
▁문자	-9.7319
▁2016	-9.73229
▁주어	-9.73253
▁몰라	-9.73278
▁챙기	-9.73326
▁끼	-9.73364
▁있나요	-9.73374
▁나라에	-9.73376
▁거짓말	-9.73377
▁중학교	-9.73442
왕	-9.73453
▁저와	-9.73474
▁뿐입니다	-9.73489
60	-9.73528
▁답변을	-9.73547
▁있으나	-9.73602
▁둘째	-9.73625
비가	-9.73641
▁예를	-9.7367
▁남아	-9.73676
받으	-9.73702
▁피해자들	-9.73732
▁불과	-9.73755
협회	-9.73795
▁활성화	-9.73873
▁많은데	-9.73875
쇼	-9.73908
▁살수	-9.73996
▁막아	-9.7405
▁링크	-9.7405
▁13	-9.74073
십니까	-9.74133
으신	-9.74149
▁그것	-9.74172
속에	-9.74189
장은	-9.74224
▁화가	-9.74287
폭행	-9.74464
▁본인들	-9.745
위원장	-9.74523
▁칼	-9.74525
▁혹시	-9.74543
▁현금	-9.74569
▁폭등	-9.74594
군요	-9.7465
▁됩니까	-9.74663
▁방식	-9.74699
▁그렇지	-9.74717
▁쌓	-9.74744
▁올라가	-9.74801
수준	-9.74804
▁논	-9.74827
되기	-9.74888
▁끊	-9.74894
▁다녀	-9.74908
▁안된다	-9.74963
▁현상	-9.74988
▁법은	-9.74993
▁것이고	-9.75026
만원을	-9.75052
▁한국의	-9.75165
90	-9.75248
▁간호사	-9.75253
▁강요	-9.75297
▁전세계	-9.75328
▁토지	-9.75338
▁살아가는	-9.75361
▁비교	-9.75372
▁기타	-9.75396
왜	-9.75399
▁예방	-9.75408
▁접수	-9.7541
▁300	-9.75416
▁프로그램	-9.75423
▁뽑아	-9.75428
들만	-9.75435
▁통합	-9.75444
▁탄	-9.75455
▁임신	-9.75585
27	-9.75599
방법	-9.75641
시면	-9.75667
분양	-9.7567
▁운	-9.75686
▁폐기	-9.7571
료를	-9.75718
15	-9.7581
▁하나요	-9.75822
▁청구	-9.75841
▁독도	-9.75853
베	-9.75898
잇	-9.75911
▁밑	-9.75918
▁공간	-9.75945
▁독립	-9.75962
했을	-9.76085
▁문의	-9.76114
▁입법	-9.76154
▁형사	-9.76157
▁몇년	-9.76161
노동	-9.76202
▁몰아	-9.76232
▁당연	-9.76241
해요	-9.7627
안에	-9.76293
대한민국	-9.76299
▁예전	-9.76403
왔	-9.7643
▁그렇다고	-9.76433
▁건의	-9.76453
만원이	-9.76471
진다	-9.76482
▁업	-9.76523
▁운전자	-9.76542
▁말하는	-9.76552
▁기록	-9.76612
▁생겨	-9.76692
▁이동	-9.76777
▁16	-9.76811
▁심판	-9.76891
하였으나	-9.76894
차를	-9.76975
▁자신들의	-9.77055
▁작업	-9.77095
▁집행	-9.77095
▁지불	-9.771
▁리	-9.77111
▁음	-9.77178
▁수수료	-9.77182
곳이	-9.77202
져서	-9.7723
▁쓴	-9.77234
▁확	-9.77298
▁내는	-9.77322
▁보통	-9.77349
▁투	-9.77372
힘	-9.77402
▁페	-9.77464
위해	-9.77472
▁북한이	-9.77496
짜	-9.77517
▁이상의	-9.77568
린다	-9.77572
80	-9.77577
▁해체	-9.77625
▁70	-9.77649
뉴스	-9.77768
13	-9.77775
있어	-9.77778
▁대통령의	-9.7779
▁쳐	-9.77826
▁골	-9.77846
▁누구를	-9.77894
이런	-9.77899
하였	-9.77969
▁공감	-9.78048
시간을	-9.78122
하기도	-9.78172
▁마스크	-9.78325
▁저지른	-9.78327
나서	-9.78341
▁주지	-9.78343
▁정치적	-9.78416
▁공기	-9.78432
▁소방관	-9.78435
▁단축	-9.78506
▁조치를	-9.78554
▁폐지를	-9.78579
▁대통령은	-9.7859
▁묻고	-9.78612
▁나왔	-9.78637
▁퇴	-9.78638
스럽습니다	-9.78748
▁대학교	-9.78895
하죠	-9.78918
십시오	-9.78942
▁올리는	-9.78961
하고있는	-9.78978
▁인지	-9.79
▁존중	-9.79007
▁공정한	-9.79069
능력	-9.79091
500	-9.79145
여서	-9.7918
정치	-9.79217
▁나라는	-9.79263
된다면	-9.7944
▁민원을	-9.7948
내는	-9.79497
▁분야	-9.79552
▁14	-9.79563
▁깨	-9.79607
▁있던	-9.79607
▁노무현	-9.79658
퍼	-9.79699
▁성과	-9.79704
▁결론	-9.79725
▁면제	-9.7973
▁적은	-9.79792
▁해소	-9.79905
0	-9.79945
▁방법을	-9.79952
버스	-9.80005
▁살려	-9.80066
▁못해	-9.80093
▁될수	-9.80148
켜	-9.80194
▁무료	-9.80213
하셨	-9.80223
서울	-9.80244
▁이상한	-9.80252
▁책	-9.80273
▁느껴	-9.80317
▁딱	-9.8035
▁법의	-9.80355
▁부족한	-9.80363
▁조차	-9.80369
▁와서	-9.80372
하였고	-9.80375
홀	-9.80396
▁파면	-9.8045
▁손실	-9.80536
짜리	-9.8054
▁♥	-9.80573
단계	-9.80632
수사	-9.8068
▁한국인	-9.80695
당한	-9.80707
지금	-9.80716
으면서	-9.80823
▁청소년들	-9.80825
▁형량	-9.80844
▁사정	-9.80863
▁관심을	-9.80896
▁강제로	-9.80932
▁눈치	-9.80976
▁불만	-9.8099
▁사회가	-9.81
▁좌	-9.81012
조작	-9.8105
▁비싼	-9.81096
발전	-9.8113
▁곳에	-9.81131
얼	-9.81154
▁느끼	-9.81235
임금	-9.8127
아니라	-9.81296
▁홍	-9.81314
등록	-9.81386
라서	-9.81398
▁길거리	-9.81402
▁그렇다면	-9.81408
▁종사	-9.81415
▁죽을	-9.81476
법이	-9.81476
후에	-9.81484
▁군사	-9.81496
▁통해서	-9.81747
▁값	-9.81811
▁저를	-9.81831
장관	-9.8185
대학	-9.81929
또	-9.81929
운전	-9.81945
▁전화를	-9.81968
▁혼	-9.81973
▁사람에게	-9.8204
▁신규	-9.82058
필요	-9.82098
▁인생	-9.82109
▁노조	-9.82134
▁사회에	-9.82353
책임	-9.82388
데요	-9.82391
▁보았습니다	-9.82402
▁담당자	-9.8241
록	-9.82417
▁듯	-9.8253
▁확보	-9.82573
▁실패	-9.82574
▁마음에	-9.82589
▁면접	-9.8259
▁연예인	-9.82619
섭	-9.82628
비리	-9.82666
략	-9.82675
▁있으	-9.82732
▁첫	-9.82736
▁자격증	-9.82816
하였다	-9.82825
▁재벌	-9.82888
▁압니다	-9.82919
▁충격	-9.82935
▁있는것	-9.82938
▁의무화	-9.8324
업무	-9.83257
였다	-9.83286
▁대화	-9.83327
들고	-9.83353
▁상당	-9.83379
▁밝	-9.83431
사용	-9.83457
▁떨	-9.8347
▁교육부	-9.83484
▁소중한	-9.83494
고싶은	-9.83531
▁읽어	-9.83541
▁허위	-9.83552
▁준다	-9.83575
▁도움	-9.83597
▁게시물	-9.83626
놓은	-9.83636
▁예상	-9.83682
해주십시오	-9.83726
시킨	-9.83752
▁세금이	-9.83769
졌다	-9.8381
X	-9.83891
▁17	-9.83955
▁아닐	-9.83985
던가	-9.84036
▁사용하는	-9.84043
▁감시	-9.84098
▁후보	-9.84109
정도로	-9.84157
▁부패	-9.84226
▁공기업	-9.84237
▁심신미약	-9.84257
하실	-9.8428
▁알수	-9.84287
▁보이지	-9.843
▁궁금	-9.84304
▁무리	-9.84344
▁~	-9.84355
▁죽음	-9.84394
▁착	-9.844
▁중에	-9.84429
▁빌	-9.84507
▁소속	-9.84516
결과	-9.84571
▁무죄	-9.84626
▁비싸	-9.84662
폰	-9.8467
▁되기	-9.84684
짝	-9.84698
▁대통령님께서	-9.84761
건설	-9.84786
▁강력	-9.84837
느냐	-9.84865
하겠다고	-9.84894
▁북한에	-9.84904
들로	-9.84912
하려면	-9.8492
자들을	-9.84929
해주시길	-9.85022
▁도와주	-9.85103
▁파악	-9.85106
▁교수	-9.85115
▁것이라고	-9.85116
▁당연한	-9.85156
▁힘들고	-9.85217
▁싫어	-9.85224
▁낙	-9.85227
먹는	-9.85229
▁영향을	-9.85254
▁등으로	-9.85297
▁된다는	-9.85311
▁들어오	-9.85322
공개	-9.85348
▁부여	-9.85404
H	-9.85419
▁떨어	-9.8543
▁공평	-9.85453
▁순간	-9.85465
▁새벽	-9.85501
▁논리	-9.8557
▁볼수	-9.85594
▁꾸	-9.85626
▁정신적	-9.85648
▁특혜	-9.85686
사람들이	-9.85712
▁경제적	-9.85721
운영	-9.85822
헌	-9.8583
▁미리	-9.85885
랄	-9.85922
▁하셨	-9.85933
▁항의	-9.85959
▁배려	-9.85988
▁아프	-9.85993
가구	-9.85994
▁25	-9.86029
▁편의점	-9.86039
▁말로	-9.86066
▁면허	-9.86067
에게도	-9.86138
▁하네요	-9.86157
▁본인의	-9.86238
경기	-9.86262
▁호소	-9.86264
▁박탈	-9.86336
▁걷	-9.86349
▁교사들	-9.86366
▁꺼	-9.86379
▁손해	-9.86402
▁저에게	-9.86413
▁분들은	-9.86442
▁그것을	-9.86468
▁휴가	-9.86471
▁나아가	-9.86508
▁유튜브	-9.86539
그러	-9.86586
▁제도가	-9.86591
▁권한	-9.86621
▁당하고	-9.86621
재산	-9.86641
▁문제인	-9.86694
▁것이라	-9.86712
했는지	-9.86714
▁언	-9.86718
▁가슴	-9.86755
▁소식	-9.86773
부대	-9.86787
▁진료	-9.86809
!!!!	-9.86851
풀	-9.86872
▁청약	-9.86877
K	-9.8692
꾸	-9.86936
▁여름	-9.86985
줬	-9.8702
인권	-9.87095
▁우리나라가	-9.87121
머니	-9.87196
▁학생들의	-9.87204
▁네	-9.87216
▁시키	-9.87249
▁중간	-9.87295
▁문제로	-9.87352
▁안될	-9.8738
▁납니다	-9.87383
▁꿈을	-9.87414
럽	-9.87434
▁아이들은	-9.87436
▁여전히	-9.87445
▁여기서	-9.87483
▁같은데	-9.87489
▁무엇을	-9.87491
▁통화	-9.87537
▁동시에	-9.87579
그리고	-9.87587
▁감정	-9.87609
▁납득	-9.87729
팅	-9.87757
▁외면	-9.8778
▁취득	-9.87842
▁소수	-9.87863
▁국토부	-9.87865
부탁드립니다	-9.87878
▁집에서	-9.87883
▁그만큼	-9.87919
▁해보	-9.87934
▁세상이	-9.87952
▁형평성	-9.87986
끔	-9.88002
▁않는다	-9.88049
▁했으면	-9.88072
▁개헌	-9.88076
월에	-9.88187
하는것이	-9.88188
▁기준으로	-9.88195
▁이자	-9.882
엇	-9.882
▁진실	-9.88209
▁직장인	-9.88232
▁생리대	-9.88234
▁신고를	-9.88239
▁높이	-9.88257
▁국가를	-9.8826
▁야당	-9.88284
▁내야	-9.88287
텔	-9.88311
카드	-9.88353
▁사교육	-9.8844
하겠다는	-9.88465
▁100%	-9.88492
우리	-9.88506
▁즉각	-9.88528
▁경우도	-9.88531
▁멀	-9.88571
▁무엇이	-9.88662
▁K	-9.88687
봐도	-9.88697
없어	-9.88703
람	-9.88744
선거	-9.88745
▁사실이	-9.88761
▁민주	-9.88842
낼	-9.88848
▁다시한번	-9.8903
▁베	-9.89167
▁계신	-9.89187
▁희망을	-9.89188
로운	-9.89194
업자	-9.89261
▁교체	-9.89321
▁학생들은	-9.89353
▁살리	-9.89453
슬	-9.89472
▁팀	-9.89486
▁행동을	-9.89508
해야한다	-9.89567
▁다니고	-9.89578
▁원래	-9.89603
▁아이들의	-9.89608
것같습니다	-9.8971
▁목숨	-9.89747
▁참으로	-9.89773
▁책임지	-9.89778
규제	-9.89881
니깐	-9.89886
춘	-9.89902
던데	-9.89911
▁단어	-9.89928
부모	-9.90001
▁근로자들	-9.90015
▁기능	-9.9003
▁활	-9.90034
▁수정	-9.90041
▁타고	-9.9007
▁빠져	-9.90151
▁빈	-9.90178
▁필수	-9.90191
웠	-9.90224
▁이뤄	-9.90231
장애	-9.90247
▁소상공인	-9.90298
▁수백	-9.90304
줘	-9.90306
한국	-9.90327
▁혼란	-9.90341
▁선생님들	-9.9035
▁인건비	-9.90416
▁연차	-9.90423
▁매달	-9.90453
잔	-9.90479
▁21	-9.90527
환자	-9.90556
▁하자	-9.90561
▁대리	-9.90609
수밖에	-9.90612
▁당한	-9.90631
▁이혼	-9.90632
▁대한민국에	-9.90642
▁분명히	-9.90648
▁입학	-9.90687
an	-9.90705
이죠	-9.908
▁사실상	-9.90878
지급	-9.90907
자고	-9.90916
▁늘어나	-9.90926
지않는	-9.90939
▁친일	-9.90951
▁갔	-9.90973
▁어느정도	-9.90974
▁올린	-9.91037
▁태극기	-9.91149
윤	-9.91174
▁사장	-9.91262
▁즉시	-9.91302
▁통보	-9.91337
▁괜찮	-9.91356
▁낮은	-9.91362
▁생명을	-9.91409
▁조금이라도	-9.91456
▁측	-9.91477
▁택배	-9.91505
▁굳이	-9.91515
▁군복무	-9.91576
▁풍	-9.91597
▁현실이	-9.91622
▁걸어	-9.91637
순위	-9.91682
되서	-9.91749
▁비난	-9.91782
▁응원	-9.91797
▁거기에	-9.91813
▁무시하고	-9.91822
논	-9.91863
천원	-9.91931
제도를	-9.91951
▁시절	-9.91984
개혁	-9.91988
▁의도	-9.92053
이랑	-9.92105
▁마지막	-9.92136
▁갚	-9.92162
버리는	-9.92211
▁다름이	-9.92224
▁같아	-9.92244
▁봉	-9.92247
감독	-9.9225
▁사람들도	-9.92261
▁없네요	-9.92264
▁합격	-9.92298
▁태도	-9.92325
▁중심	-9.92341
▁비율	-9.92343
▁안전한	-9.92355
놈들	-9.92357
▁없게	-9.92414
혐	-9.92518
▁동생	-9.92555
▁방해	-9.92634
▁C	-9.92641
▁지진	-9.9265
▁언급	-9.92709
하는것은	-9.92735
▁남성들	-9.92739
읍	-9.9278
밖	-9.92852
▁어렵게	-9.92899
혁명	-9.9293
▁유럽	-9.92968
▁군대를	-9.93019
▁대통령께서	-9.93063
▁계산	-9.93066
간다	-9.93072
▁학생입니다	-9.93072
▁정책은	-9.93121
되게	-9.93127
▁없으니	-9.93135
▁영화	-9.93156
▁신용	-9.93163
▁현재의	-9.93176
▁500	-9.93205
되는데	-9.93237
▁정확한	-9.93265
▁가면	-9.93294
▁이야기를	-9.93417
▁좀더	-9.93423
▁만들어서	-9.9361
▁대출을	-9.93665
▁출퇴근	-9.93687
▁이행	-9.9373
▁궁금합니다	-9.9373
▁담배를	-9.93731
▁적어	-9.93744
▁사라지	-9.93782
▁불리	-9.93845
V	-9.93847
지면	-9.93866
말이	-9.93872
▁미세먼지가	-9.93982
▁사안	-9.94003
▁헤	-9.9401
됐다	-9.94122
▁싶어	-9.94124
되며	-9.94153
렴	-9.94156
▁체육	-9.94159
▁조성	-9.94167
▁청원드립니다	-9.94311
▁신호	-9.94313
16	-9.94318
▁꼬	-9.94351
▁이루	-9.94363
장치	-9.94394
았다	-9.94411
자와	-9.94417
으려	-9.94424
▁기분	-9.945
▁신문	-9.94501
▁오후	-9.94503
▁유리	-9.94581
▁되는데	-9.94589
▁상대로	-9.94655
▁재정	-9.94661
▁취급	-9.94669
▁이곳	-9.94737
▁서민들은	-9.94751
▁에어컨	-9.94751
▁철저한	-9.94752
▁식으로	-9.94768
▁옳	-9.94824
▁통한	-9.94862
▁연결	-9.94881
▁뭔가	-9.94881
등의	-9.949
▁부분이	-9.94903
▁어려워	-9.94987
구조	-9.95006
▁감옥	-9.95013
ᅲ	-9.95014
묘	-9.95027
▁되었으면	-9.95027
▁무기	-9.95037
콜	-9.95048
▁불가	-9.95066
화가	-9.95146
푸	-9.9518
▁들여	-9.95184
즐	-9.95319
▁원장	-9.9537
▁정상적인	-9.95377
▁옷	-9.95378
▁미친	-9.95397
아이들	-9.95429
▁가까운	-9.95457
▁바보	-9.95476
▁심사	-9.95576
금융	-9.95604
계층	-9.95611
▁강아지	-9.95619
▁B	-9.9562
▁명예	-9.95635
▁매매	-9.95699
▁커녕	-9.95709
▁목소리	-9.95803
▁휴대폰	-9.95858
▁보지	-9.95861
▁정부와	-9.9592
시기	-9.9597
▁공익	-9.95971
▁벌써	-9.96002
흐	-9.96043
시켰	-9.96047
▁세력	-9.96092
▁입원	-9.96141
▁몇몇	-9.96157
▁감소	-9.96162
▁쪽	-9.96186
▁다만	-9.96233
▁그건	-9.96256
▁감당	-9.9626
▁기자	-9.96274
수있도록	-9.96304
▁청원이	-9.96336
위원	-9.96345
▁고위	-9.96357
▁저희가	-9.96359
맥	-9.96385
▁고작	-9.96407
는데요	-9.96454
▁보호법	-9.96458
자들에게	-9.96483
▁얼	-9.96494
칙	-9.96542
ᄋ	-9.96571
▁아이들에게	-9.96706
으로부터	-9.96712
조건	-9.96743
▁보내고	-9.96888
ᅳ	-9.9692
▁앞에	-9.96923
▁하더라도	-9.96934
▁겨울	-9.97042
▁후에	-9.97111
감사	-9.97117
별로	-9.97136
▁육아	-9.97148
▁50%	-9.97153
럭	-9.97227
~~~	-9.97256
해야한다고	-9.97302
가면서	-9.97308
▁하였	-9.97327
▁정당한	-9.9735
▁실정입니다	-9.97357
겁	-9.97438
▁소비	-9.97515
▁심한	-9.97541
▁지원금	-9.97553
▁삶의	-9.97621
드는	-9.97623
▁인도	-9.97644
주면	-9.97652
자체	-9.97698
집단	-9.97712
▁떼	-9.97729
얻	-9.97784
눈	-9.97803
▁수용	-9.97819
25	-9.97842
▁자신들	-9.97877
▁경비	-9.97904
▁관리자에	-9.97947
륜	-9.9795
에대해	-9.97952
▁걸리	-9.97957
됬	-9.98013
▁요구합니다	-9.98039
▁지속	-9.9804
▁학교에	-9.98047
▁넣어	-9.98052
사람은	-9.98052
오고	-9.98061
▁어디서	-9.981
졸	-9.98138
▁공동	-9.98278
▁하는거	-9.983
롭	-9.98326
딴	-9.9833
앞	-9.98374
▁않으	-9.98384
▁먹는	-9.98397
▁의식	-9.98422
났	-9.98426
▁초등학생	-9.98486
▁구청	-9.98494
해야하는	-9.98558
▁경찰관	-9.98559
▁국가대표	-9.9859
▁가격이	-9.98616
▁외치	-9.98665
▁했던	-9.98673
물질	-9.98695
▁중앙	-9.98697
▁필요하다	-9.98732
▁운영하는	-9.98751
▁행위를	-9.98766
▁돼	-9.98781
임에도	-9.98798
26	-9.98819
▁수사를	-9.98849
겼	-9.98916
▁맞게	-9.98932
굴	-9.9899
드리고	-9.9905
▁1000	-9.99172
잃	-9.99247
▁심정	-9.99281
U	-9.99321
되나요	-9.99358
▁사전	-9.99369
▁형편	-9.99427
▁기득권	-9.99477
행정	-9.99492
시간에	-9.99598
▁많다	-9.99644
▁대우	-9.99697
ᄏᄏᄏ	-9.9971
있다고	-9.99722
▁이래	-9.99732
▁응	-9.99746
▁알아서	-9.99746
▁청소	-9.99828
▁이대로	-9.99852
▁징계	-9.99898
▁어이가	-9.99996
▁싸우	-9.99999
쓰고	-10.0001
▁어차피	-10.0006
▁임기	-10.0008
려서	-10.001
흡	-10.0014
▁당사자	-10.0014
▁뻔	-10.0015
▁저지르	-10.0017
장애인	-10.0018
▁문제입니다	-10.0022
▁세상에	-10.0022
▁빼앗	-10.0029
▁회사에서	-10.003
▁하락	-10.0033
▁감사하겠습니다	-10.0034
▁물어보	-10.0037
기때문에	-10.0038
▁사퇴	-10.004
▁연기	-10.0046
▁만들었	-10.0047
해야할	-10.0048
▁봐야	-10.0049
▁집안	-10.0049
그룹	-10.0051
▁지시	-10.0056
가정	-10.0058
니까요	-10.006
▁봤	-10.006
▁어른들	-10.0062
▁보험료	-10.0062
▁지적	-10.0064
▁매번	-10.0064
▁청원글	-10.0069
갔습니다	-10.007
▁카	-10.0071
▁봐주	-10.0073
▁실현	-10.0074
▁아닌데	-10.0082
▁있어요	-10.0083
하겠다	-10.0087
▁엄벌	-10.0092
봤	-10.0093
▁대학생	-10.0095
▁대변	-10.0099
▁적극적으로	-10.0102
▁부르	-10.0102
▁고쳐	-10.0104
끌	-10.0106
자료	-10.0107
▁제목	-10.0109
▁지인	-10.0109
▁잔인	-10.0113
거면	-10.0114
▁보시	-10.0115
▁느낌	-10.0116
부동산	-10.0116
▁어디에	-10.0121
▁이용하는	-10.0122
▁알리	-10.0123
▁주시고	-10.0124
▁건가요	-10.0125
끼리	-10.0128
▁발급	-10.0131
서비스	-10.0131
▁2019	-10.0133
▁바란다	-10.0136
차선	-10.0136
정신	-10.0137
짖	-10.0139
▁첫째	-10.0139
스럽	-10.0142
▁애국	-10.0145
▁경제가	-10.0147
▁합법	-10.0149
▁관광	-10.015
쇄	-10.015
▁핸드폰	-10.0152
▁나오고	-10.0152
▁곳에서	-10.0155
▁당선	-10.0158
▁올리고	-10.0159
훈련	-10.0161
▁없어지	-10.0162
▁봐도	-10.0163
▁보유세	-10.0164
계획	-10.0164
괴	-10.0166
▁왔습니다	-10.0166
머	-10.0173
▁이럴	-10.0174
하러	-10.0176
▁회	-10.0177
솔	-10.0178
▁인재	-10.018
▁넘게	-10.018
버리	-10.0182
십시요	-10.0185
▁이유를	-10.0188
▁구분	-10.0191
줍니다	-10.0192
▁자전거	-10.0197
의료	-10.0197
현장	-10.02
워서	-10.0203
▁일자리가	-10.0205
▁지구	-10.0208
▁현행	-10.0214
▁예비군	-10.0217
해놓고	-10.0217
▁여기에	-10.0221
▁통제	-10.0222
▁내용은	-10.0225
까봐	-10.0226
멍	-10.023
냈	-10.0231
▁절대로	-10.0233
자녀	-10.0233
▁등에	-10.0235
▁보며	-10.0237
▁법정	-10.0238
▁보이는	-10.0239
▁TV	-10.0241
▁정리	-10.0242
▁동영상	-10.0244
▁조장	-10.0246
급여	-10.0249
▁그러한	-10.0253
****	-10.0255
앞에	-10.0256
▁십	-10.0256
▁금감원	-10.0257
▁갈등	-10.0264
▁문재인대통령님	-10.0287
곳에서	-10.029
▁규제를	-10.0292
성과	-10.0297
▁반려동물	-10.0303
▁추천	-10.0307
▁했지만	-10.0311
피해	-10.0313
▁추방	-10.0327
▁독재	-10.0332
뿌	-10.0345
준다	-10.035
▁가짜	-10.0351
▁야간	-10.0353
맨	-10.0353
쿠	-10.0353
▁영세	-10.0353
해주시면	-10.0358
▁대기	-10.036
▁알고있습니다	-10.0361
▁기업들	-10.0367
▁세우	-10.0372
▁건강보험	-10.0372
▁새로	-10.0377
▁화장실	-10.0379
▁말아	-10.0384
▁좋지	-10.0386
봐야	-10.0391
▁상처	-10.0392
▁사업자	-10.0394
100	-10.0396
▁알아보	-10.0397
조선	-10.0398
▁현실을	-10.0401
▁본다	-10.0403
앙	-10.0407
국민들	-10.042
▁낼	-10.0422
해주셨으면	-10.0429
▁나와서	-10.0435
70	-10.0435
▁지지율	-10.044
▁법인	-10.0442
번째	-10.0448
많이	-10.045
▁하더군요	-10.045
요금	-10.0456
▁입니까	-10.0457
▁불이익	-10.0461
▁대상으로	-10.0465
▁이와	-10.0467
▁이슬람	-10.0467
▁비핵화	-10.0467
▁헌	-10.0476
▁우리나라에서	-10.0479
▁피해자는	-10.0481
▁선정	-10.0485
시절	-10.0487
▁근무하는	-10.0488
▁판결을	-10.0489
▁지식	-10.0494
▁보건	-10.0495
▁대안	-10.0499
▁신혼부부	-10.0504
스럽게	-10.051
▁오른	-10.0514
▁어리	-10.0514
흘	-10.0515
모르	-10.0515
▁말이다	-10.0517
▁초과	-10.0518
있을	-10.0522
▁이슈	-10.0528
▁손님	-10.0532
*	-10.0532
쌍	-10.0537
콘	-10.0538
▁합시다	-10.0551
▁막을	-10.0556
됐	-10.0557
▁쥐	-10.0565
업종	-10.0569
▁빛	-10.0571
▁남자들	-10.0573
나면	-10.0577
놀	-10.0579
29	-10.058
▁불러	-10.058
제발	-10.0583
판사	-10.0586
▁나서서	-10.0587
▁요건에	-10.059
▁응급	-10.0594
▁괴	-10.0594
버리고	-10.0612
▁나오지	-10.0614
▁투명	-10.0623
▁80	-10.0624
▁술을	-10.0625
▁하루에	-10.0626
써	-10.0626
▁생활을	-10.0628
▁문재인정부	-10.0628
▁마음을	-10.0634
▁갈수록	-10.0637
▁욕설	-10.0638
할까요	-10.0639
푼	-10.0644
▁어렵습니다	-10.0645
▁기초연금	-10.0646
▁목적으로	-10.0649
▁혐오	-10.0651
▁훼손	-10.0655
▁사회에서	-10.066
▁부서	-10.0664
▁지내	-10.0664
▁선고	-10.0665
당시	-10.0666
▁나이가	-10.0668
시스템	-10.0672
님이	-10.0673
▁보육교사	-10.0673
▁한달에	-10.0676
2018	-10.0679
민족	-10.068
▁동일	-10.0687
▁생각한다	-10.0699
▁수단	-10.0699
▁범죄자들	-10.07
▁전면	-10.0702
▁감형	-10.0705
▁인간들	-10.0707
▁다르	-10.0712
31	-10.0712
▁사회를	-10.0712
▁동원	-10.0713
▁출신	-10.0713
했더니	-10.0715
사실	-10.0716
방식	-10.0717
▁피의자	-10.0717
▁하나도	-10.072
달라고	-10.0733
▁입사	-10.0735
년째	-10.0737
▁가만히	-10.0738
▁상품	-10.0739
▁명시	-10.0743
▁누리	-10.0745
naver	-10.0755
인력	-10.0756
▁아닌지	-10.0756
35	-10.0757
▁장소	-10.0771
▁최소한의	-10.0771
j	-10.0783
▁하루빨리	-10.0786
할것	-10.079
런	-10.079
▁결코	-10.08
▁싶다	-10.08
한번	-10.0806
▁경우는	-10.0809
▁회장	-10.081
▁정보를	-10.0816
▁공부를	-10.0818
▁까	-10.082
▁키우고	-10.0826
가지고	-10.0828
냥	-10.0829
허가	-10.083
클	-10.0831
했으나	-10.0835
▁강간	-10.0837
씨는	-10.084
▁황당	-10.0844
▁독일	-10.0851
해지고	-10.0852
▁52	-10.0859
▁서민들이	-10.0864
▁싶지	-10.0868
▁법무부	-10.087
▁대책이	-10.0873
땐	-10.0874
하니까	-10.0874
▁시대에	-10.0878
▁방법으로	-10.088
일자리	-10.0885
건강	-10.0886
▁아직까지	-10.0889
▁최악	-10.089
싸	-10.0893
▁가능하다	-10.0894
▁여성이	-10.0898
▁시도	-10.0904
▁단순히	-10.0905
▁길을	-10.0905
계좌	-10.091
▁목숨을	-10.0913
▁투입	-10.0915
▁한국은	-10.0915
▁업무를	-10.0916
▁위배되어	-10.0923
▁만들어야	-10.0923
▁홈페이지	-10.0934
▁해주십시오	-10.0937
▁않기	-10.0944
근로자	-10.0952
▁수정되었습니다	-10.0953
▁고속도로	-10.0953
개선	-10.096
▁합리적	-10.096
▁항공	-10.0964
▁여당	-10.0965
▁있겠지만	-10.097
▁유명	-10.097
▁국민과	-10.0971
17	-10.0971
해준다	-10.0976
▁말은	-10.0979
▁차이가	-10.0986
뜻	-10.0987
회담	-10.0987
하냐	-10.0998
▁협력	-10.0998
궁	-10.0999
▁무기징역	-10.1005
▁통장	-10.1005
▁출국	-10.101
▁정권이	-10.1011
▁들었	-10.1016
▁전달	-10.102
▁모욕	-10.1022
세상	-10.1027
▁금리	-10.1027
▁ᅳ	-10.1031
▁대선	-10.1031
받아야	-10.1035
▁앞에서	-10.104
▁분위기	-10.1041
하겠	-10.1042
넣	-10.1045
▁노동자들	-10.1045
▁폐지하고	-10.1054
▁모릅니다	-10.1058
▁위험한	-10.1059
▁자동	-10.1059
▁것이며	-10.1063
▁매출	-10.1069
▁바입니다	-10.1073
조합	-10.1075
쪽으로	-10.1079
▁임산부	-10.1083
서야	-10.1084
속에서	-10.1084
▁맞다고	-10.1086
▁무능	-10.1086
▁받기	-10.1087
▁방향	-10.1088
▁북한과	-10.1089
▁뇌	-10.1104
▁아닐까요	-10.1108
▁밝히	-10.1111
▁남한	-10.1116
공제	-10.1117
호봉	-10.1119
▁말만	-10.1128
▁자원	-10.1128
▁줘야	-10.113
▁아내	-10.1132
전문	-10.1136
▁한국에서	-10.1137
▁두번	-10.1137
벨	-10.1137
▁맞춰	-10.115
▁자세	-10.1151
하셨습니다	-10.1155
▁전문가	-10.1158
▁개인정보	-10.116
or	-10.1167
▁일어나고	-10.1168
▁트럼프	-10.1177
J	-10.1178
▁자유를	-10.1189
롭게	-10.1192
경찰서	-10.1193
▁안좋	-10.1197
▁왔	-10.1198
▁오는	-10.1202
▁됐	-10.1203
▁일주일	-10.1207
▁넓	-10.1208
▁않나요	-10.1208
▁수치	-10.121
▁하지않	-10.121
▁올랐	-10.1211
▁완화	-10.1211
▁논의	-10.1214
▁것과	-10.1219
▁여유	-10.122
▁많을	-10.1221
▁S	-10.1222
났습니다	-10.1223
▁미래가	-10.1228
▁남은	-10.124
▁남의	-10.1243
▁맞추	-10.1254
라며	-10.1254
▁현정부	-10.1255
▁나옵니다	-10.1256
▁출입	-10.1258
▁게다가	-10.1259
▁시험을	-10.126
▁해결책	-10.1269
▁협의	-10.1273
▁분들도	-10.1273
첨	-10.1275
두고	-10.1277
▁선발	-10.1279
▁결과를	-10.1279
▁2015	-10.1285
▁마음대로	-10.1286
▁발견	-10.1293
씁	-10.1294
대학교	-10.1294
뉴	-10.1298
영향	-10.1299
▁때문	-10.13
▁않았다	-10.1301
었다고	-10.1302
co	-10.1304
▁왕	-10.1309
▁상당히	-10.131
▁젊은이들	-10.1315
▁임명	-10.132
▁굉장히	-10.1323
▁예정	-10.1323
▁사업장	-10.1326
▁하라고	-10.1327
▁버리	-10.1328
▁가해자들	-10.1333
▁아르바이트	-10.1334
▁횡포	-10.1338
것이고	-10.134
▁비슷한	-10.1351
▁관심이	-10.1353
자동차	-10.1354
질환	-10.1354
14	-10.1354
▁여성의	-10.1356
▁방학	-10.1357
▁방안을	-10.1358
었지만	-10.136
▁팔아	-10.1362
기전에	-10.1362
▁마시	-10.1362
▁이득	-10.1366
▁시키고	-10.137
▁기본적인	-10.1374
▁차원에서	-10.138
▁생각하지	-10.1381
in	-10.1386
털	-10.1387
▁미치	-10.1396
▁식당	-10.14
▁받아서	-10.1403
▁주시기를	-10.1404
하시면	-10.1407
▁태어나	-10.1416
▁강한	-10.1418
▁굴	-10.1422
자격	-10.1422
▁탓	-10.1429
▁흉	-10.143
▁사업을	-10.1432
▁과정에서	-10.144
▁동참	-10.144
▁설립	-10.144
▁뇌물	-10.1442
▁트	-10.1444
▁대폭	-10.145
▁냉	-10.1452
▁시정	-10.1454
▁알지	-10.1455
케이	-10.1458
▁재건축	-10.1459
▁형태	-10.1459
▁아무도	-10.1463
▁세상을	-10.1465
▁했다고	-10.1467
▁과태료	-10.1468
▁자율	-10.1475
▁성평등	-10.1477
▁못하도록	-10.1478
탐	-10.1483
혔	-10.1486
▁촉구합니다	-10.1493
▁완전히	-10.1493
▁생긴	-10.1494
▁따르면	-10.15
된다는	-10.1503
22	-10.1508
쳐서	-10.1508
히고	-10.1508
▁주소	-10.1509
▁있어도	-10.1515
▁마음으로	-10.1517
게임	-10.152
▁줄이고	-10.152
▁그럼에도	-10.1524
▁통하여	-10.1525
▁개입	-10.1525
▁벗어나	-10.1528
▁정말로	-10.1531
걸까요	-10.1532
▁퇴직금	-10.1532
때부터	-10.1534
▁공식	-10.1535
▁월급을	-10.1536
▁국가는	-10.1536
전형	-10.1538
▁주차장	-10.1541
▁다자녀	-10.1544
돌아	-10.1545
▁기준을	-10.155
▁고등학생	-10.1555
er	-10.1558
▁제대로된	-10.1559
▁가능성이	-10.1561
▁부작용	-10.1561
▁육	-10.1563
▁우리나라에	-10.1569
▁절실	-10.1576
▁돈벌	-10.1578
▁있었던	-10.1585
▁만드	-10.1588
로인해	-10.1604
▁지속적으로	-10.1605
친구	-10.1605
▁집값이	-10.1609
▁노래	-10.1611
▁교육청	-10.1612
▁소득이	-10.162
▁대법원	-10.1621
▁왜곡	-10.1621
▁할머니	-10.1623
빵	-10.1626
▁자한당	-10.163
갔다	-10.1632
만이라도	-10.164
▁버티	-10.1641
▁있었다	-10.1642
▁어른	-10.1645
먼	-10.1646
▁배치	-10.1647
되었다	-10.1653
--	-10.1653
턴	-10.1656
힐	-10.1656
▁위에	-10.1659
▁핑계	-10.166
▁대통령님께	-10.1663
보내	-10.1665
▁원전	-10.1671
다운	-10.1671
▁철회	-10.1675
▁신분	-10.1677
▁그러므로	-10.1679
▁대답	-10.1682
▁임시	-10.1685
▁주식시장	-10.1687
돈을	-10.1692
▁신설	-10.1692
율이	-10.1693
▁적자	-10.1694
▁이런식으로	-10.1698
▁현장에서	-10.1698
▁보게	-10.1699
▁이걸	-10.17
▁끝까지	-10.1706
▁대한항공	-10.171
▁하려고	-10.1717
▁시간에	-10.1719
▁진심으로	-10.172
▁이들이	-10.1723
▁워마드	-10.1728
끝	-10.173
▁못받	-10.173
▁소리를	-10.1741
▁마련해	-10.1742
▁선동	-10.1743
▁않는다면	-10.1746
▁대부분이	-10.1747
마음	-10.1748
▁윤	-10.1749
▁마세요	-10.175
택시	-10.1753
▁입고	-10.176
공급	-10.1761
▁현실적으로	-10.1761
▁확실히	-10.1762
▁정책에	-10.1765
▁위해서라도	-10.1766
▁지어	-10.1767
▁덮	-10.1773
▁접근	-10.1774
생각합니다	-10.1776
캐	-10.1786
저는	-10.1793
▁짜	-10.1794
것인지	-10.1798
▁일어난	-10.1798
되었다고	-10.1801
▁오로지	-10.1805
▁규모	-10.1809
▁제안합니다	-10.181
▁챙겨	-10.1813
▁질문	-10.1813
위반	-10.1813
▁명의	-10.1817
▁힘없는	-10.1818
▁하나의	-10.1821
▁힘들다	-10.1822
▁되지않	-10.1823
▁핵심	-10.1824
▁의료보험	-10.1826
▁애기	-10.1827
때문	-10.1828
▁안전하게	-10.1828
▁채무	-10.1831
▁모르겠	-10.1836
▁실력	-10.1837
레이	-10.1841
▁상상	-10.1843
챙	-10.1843
정말	-10.1846
▁일반인	-10.1847
▁아파	-10.1849
▁무엇	-10.1852
▁치료를	-10.1859
▁대전	-10.1859
01	-10.1861
▁프로	-10.1865
▁경우에는	-10.187
썩	-10.1871
하였는데	-10.1874
뿐이	-10.1876
▁학교를	-10.1877
▁공직자	-10.1882
▁정책으로	-10.1886
▁최종	-10.1892
▁비롯한	-10.1893
▁이용하여	-10.1894
▁쏟아	-10.1895
▁키	-10.1896
처분	-10.1896
할수있	-10.1899
▁부당한	-10.19
섬	-10.1902
▁어처구니	-10.1902
▁범죄가	-10.1903
하셔서	-10.1903
▁상태에서	-10.1905
▁모르겠지만	-10.1908
▁추구	-10.1908
붙	-10.1911
▁싸움	-10.1911
▁무상	-10.1913
▁차를	-10.1913
▁무섭	-10.1913
킹	-10.1914
▁없애고	-10.1916
준비	-10.1919
지않습니다	-10.192
모든	-10.1921
있게	-10.1923
▁말씀드리	-10.1923
▁이들은	-10.1929
▁유통	-10.1936
▁사고를	-10.1938
▁최대한	-10.1939
▁보건복지부	-10.1941
받았	-10.1943
놔	-10.1945
못하고	-10.1945
▁주위	-10.1947
▁눈에	-10.195
▁용역	-10.1952
▁없음	-10.1953
▁같아요	-10.1955
씨가	-10.1967
연합	-10.1967
▁신체	-10.197
좋은	-10.197
하겠습니까	-10.1983
▁위기	-10.1988
▁해야하는	-10.1989
킨	-10.199
▁외부	-10.1991
이므로	-10.1991
▁자영업자들	-10.1992
▁공격	-10.1996
셨습니다	-10.1999
#	-10.2
▁잘못을	-10.2004
▁비용을	-10.2004
▁되어서	-10.2005
들입니다	-10.2007
▁휘	-10.2009
▁아니지만	-10.2011
▁생존	-10.2013
엄	-10.2016
▁아이의	-10.2022
듣	-10.2022
▁오전	-10.2023
▁피해자의	-10.2024
▁**	-10.2026
핵	-10.2027
200	-10.2028
튼	-10.2028
▁키워	-10.2033
▁***	-10.2034
▁받는다	-10.2034
▁피해자를	-10.2035
할것입니다	-10.2038
부담	-10.2044
▁살아가	-10.2045
▁갑니다	-10.2054
렸습니다	-10.2055
▁먼	-10.2063
▁좋습니다	-10.2064
찾	-10.2066
정책을	-10.2072
▁평창	-10.2074
▁주변에	-10.2075
▁바쁘	-10.2077
▁재산을	-10.2078
▁퇴사	-10.2079
▁앞서	-10.2081
▁병원에	-10.2081
▁양성	-10.2083
빈	-10.2086
▁옮겨	-10.2087
▁때문이	-10.2089
▁살아갈	-10.2094
말고	-10.2095
금리	-10.2096
▁오토바이	-10.2099
▁수요	-10.2103
하지않고	-10.2105
답게	-10.2108
▁축소	-10.2109
▁난리	-10.2112
주시면	-10.2113
올리	-10.2115
주기	-10.2117
업계	-10.2118
▁진보	-10.2118
▁버려	-10.212
▁교통사고	-10.2132
▁따지	-10.2133
월부터	-10.2138
난다	-10.2138
조정	-10.2139
52	-10.2144
▁이웃	-10.2146
▁비트코인	-10.2147
구청	-10.2149
인것	-10.215
▁부처	-10.215
공원	-10.215
▁ᆞ	-10.2151
▁겁	-10.2154
▁10%	-10.2154
▁국민입니다	-10.2157
▁확실한	-10.2158
▁길이	-10.2158
▁없지만	-10.216
픈	-10.2166
▁마약	-10.2167
▁생길	-10.2172
▁일제	-10.2174
▁노예	-10.2178
▁걱정이	-10.2178
▁압박	-10.2179
채용	-10.218
▁자영업	-10.2181
▁뉴스에	-10.2181
▁절반	-10.2182
▁혐의	-10.2182
뿐입니다	-10.2185
▁시키는	-10.2187
사람들은	-10.2187
->	-10.219
▁바라보	-10.2192
장님	-10.2193
▁폐지해주세요	-10.2194
▁낙태	-10.2195
▁현역	-10.2195
▁공유	-10.2204
▁중학생	-10.2209
살인	-10.2211
▁해결해	-10.2212
▁지금이라도	-10.2217
▁국방부	-10.2219
▁현실에	-10.2219
하든	-10.222
▁도덕	-10.2222
십니다	-10.2222
▁내일	-10.2226
▁말이죠	-10.2226
고등학교	-10.2227
▁인하	-10.2229
▁아픈	-10.2231
▁다주택자	-10.2232
야한다	-10.2232
토록	-10.2235
▁가질	-10.2236
▁여자들	-10.2239
옥	-10.2251
년이상	-10.2253
▁진실을	-10.2257
▁환경을	-10.2259
▁법안을	-10.2266
▁이글을	-10.2266
▁나온다	-10.2267
▁근절	-10.2267
▁이용해	-10.2267
쉽	-10.2271
▁반대하는	-10.2276
모두	-10.2282
▁사실입니다	-10.2284
달라는	-10.2286
▁비하	-10.2293
▁없기	-10.2295
▁사상	-10.2299
께서는	-10.2301
▁계속해서	-10.2303
▁받습니다	-10.2306
분들께	-10.2309
하더라도	-10.231
▁언어	-10.2316
▁처우	-10.232
▁용서	-10.2336
▁할까요	-10.2339
▁국립	-10.2339
▁보험사	-10.2345
▁근무를	-10.2347
▁●	-10.2348
▁비용이	-10.2349
▁어이없	-10.2349
▁인증	-10.2349
▁정부에서는	-10.2361
▁체력	-10.2362
▁최근에	-10.2365
▁집회	-10.2366
▁권리가	-10.2367
난민	-10.2368
▁주요	-10.2369
▁러시아	-10.2369
▁의문이	-10.2374
선생님	-10.238
▁읽어주셔서	-10.2381
▁분이	-10.2384
▁양육비	-10.2384
▁보안	-10.2385
▁일들이	-10.2388
것같	-10.2393
▁대중교통	-10.2394
▁정도의	-10.2394
21	-10.2398
▁매도	-10.2399
츠	-10.2405
휴가	-10.2408
▁베트남	-10.241
거같	-10.2412
▁없다면	-10.2415
만원씩	-10.2417
▁환불	-10.2422
▁숫자	-10.2427
발전소	-10.2428
▁코인	-10.243
▁않아도	-10.2432
앗	-10.2433
▁수령	-10.2438
▁억지	-10.2439
▁들어가는	-10.2443
▁막대한	-10.2443
시길	-10.2445
싱	-10.2447
▁살고있는	-10.2447
▁윗	-10.2449
부끄럽	-10.2451
하길	-10.2451
▁회사에	-10.2452
▁바닥	-10.2453
▁목표	-10.2454
▁발생하는	-10.2457
▁저같은	-10.2458
▁계약직	-10.2465
학과	-10.2467
▁날이	-10.2472
▁기울	-10.2474
▁정치를	-10.2482
틱	-10.2484
▁들어서	-10.2495
▁적게	-10.2499
밥	-10.25
왔는데	-10.2501
▁부모가	-10.2502
라인	-10.2505
▁해고	-10.2509
▁부담이	-10.2509
다른	-10.2515
▁비롯	-10.2516
W	-10.2517
▁하실	-10.2517
▁65	-10.252
셔야	-10.2522
▁근본적인	-10.2523
취업	-10.2524
▁천안함	-10.2525
▁올라오	-10.2527
▁사회의	-10.2535
시청	-10.2539
▁몇십	-10.254
▁자격이	-10.254
▁위안부	-10.2542
▁정확히	-10.2546
▁있음에도	-10.2556
▁그것은	-10.2557
▁생겼	-10.2557
년부터	-10.256
▁처분	-10.2564
▁속도	-10.2564
▁사기꾼	-10.2565
▁강조	-10.2572
▁금연	-10.2573
▁전자	-10.2575
▁없으며	-10.2577
▁봤습니다	-10.258
해주십시요	-10.2583
랍니다	-10.2584
년대	-10.2587
▁필요없	-10.2592
▁심해	-10.2592
▁밀어	-10.2597
조직	-10.2598
슴	-10.2598
럼	-10.2603
유지	-10.2609
효과	-10.2609
였던	-10.261
▁올렸	-10.2614
닥	-10.2615
느라	-10.2615
하십니다	-10.2616
▁개편	-10.2617
스크	-10.2623
▁보았	-10.2626
▁끌어	-10.263
폭탄	-10.2632
▁않다	-10.2636
▁인성	-10.2636
잠	-10.2637
▁잡고	-10.2645
▁채우	-10.265
야한다고	-10.2654
▁할때	-10.2661
▁병원에서	-10.2662
▁카페	-10.2663
규정	-10.267
▁평소	-10.2672
▁적이	-10.2676
▁특권	-10.2681
확인	-10.2683
▁죄송	-10.2686
인데요	-10.2692
▁했고	-10.2693
예산	-10.2694
▁실정	-10.2698
요청	-10.2701
▁정시	-10.2702
▁찌	-10.2703
단지	-10.2708
400	-10.2709
▁일어날	-10.2718
▁점수	-10.2721
으라고	-10.2722
▁가까이	-10.2723
안타깝	-10.2726
▁인간이	-10.2727
▁무엇인지	-10.273
▁앉	-10.2733
▁않다고	-10.2737
것들	-10.2739
▁종합	-10.2741
안정	-10.2744
거다	-10.2746
큰	-10.2748
▁지출	-10.275
▁대북	-10.2754
▁자기가	-10.2758
▁방법은	-10.2758
지않아	-10.2759
▁문재인대통령	-10.276
몸	-10.2761
▁재난	-10.2764
렀	-10.2764
▁전국민	-10.277
▁알았	-10.2772
▁주시면	-10.2781
▁어쩔	-10.2783
▁단일팀	-10.2786
▁늘어나고	-10.2786
▁회사가	-10.279
▁보복	-10.279
쇠	-10.2794
▁임대료	-10.2799
할수없	-10.2802
해줄	-10.2808
▁편하게	-10.281
겸	-10.2811
▁스마트폰	-10.2815
▁학생들에게	-10.2817
▁관련하여	-10.2817
▁매장	-10.2818
기능	-10.2818
▁혜택이	-10.2821
▁미래의	-10.2824
▁유아	-10.2824
▁학교폭력	-10.283
▁났	-10.283
묵	-10.2831
기록	-10.2834
▁무서운	-10.2846
▁흔들	-10.2846
▁옥	-10.2847
찍	-10.2847
▁것입니까	-10.2849
?????	-10.285
▁북한은	-10.2852
▁근무시간	-10.2854
▁것처럼	-10.2857
▁기계	-10.2857
▁피부	-10.2865
셋	-10.2867
▁청소년들이	-10.287
▁더욱더	-10.2874
▁포항	-10.2877
▁안타까운	-10.288
▁있겠	-10.2881
▁오직	-10.2881
▁엄중	-10.2881
회장	-10.2883
하십니까	-10.2883
▁뺏	-10.2886
▁놈들	-10.2892
▁카카오	-10.2893
▁미국의	-10.2893
▁서민들의	-10.2897
▁한가지	-10.2901
▁출산율	-10.2904
끄러	-10.2905
▁미투	-10.2906
▁억울함	-10.291
▁공휴일	-10.2911
▁군인들	-10.2912
▁이끌어	-10.2915
▁닫	-10.2916
힘들	-10.2917
go	-10.2917
았는데	-10.292
▁겪고	-10.2921
▁막고	-10.2922
▁긴급	-10.2925
있다는	-10.2929
껴	-10.2931
통신	-10.2932
집행	-10.2934
▁파괴	-10.2934
주셔야	-10.2934
▁되었고	-10.2938
▁보조	-10.2941
▁일어나지	-10.2941
▁형식	-10.2942
▁그랬	-10.2942
▁그만두	-10.2943
▁양심적	-10.2944
▁통신	-10.2944
petitions	-10.2944
▁가해자가	-10.2949
▁여부	-10.295
▁알려주	-10.295
▁반면	-10.2956
하기위해	-10.2962
보조금	-10.2964
▁일베	-10.2964
▁경찰은	-10.2967
시까지	-10.2975
▁정년	-10.2976
▁기준이	-10.298
▁않겠습니까	-10.298
꼴	-10.2981
on	-10.2985
▁오랜	-10.2986
▁현실은	-10.2987
▁발생한	-10.2988
되니	-10.2988
▁해주셨으면	-10.2997
▁다르게	-10.2999
▁무주택자	-10.2999
▁유공자	-10.3002
▁진단	-10.3006
▁명분	-10.3008
역시	-10.3009
태우	-10.3009
▁공원	-10.3009
되야	-10.301
▁짜증	-10.301
▁방관	-10.3011
▁개념	-10.3012
▁선량한	-10.3014
600	-10.3017
▁뛰	-10.3017
하십시오	-10.302
▁열어	-10.3024
▁요구하는	-10.3027
▁이중	-10.3029
▁건설현장	-10.3033
▁괴롭	-10.3036
▁마지막으로	-10.3039
▁또다시	-10.3045
▁과목	-10.3049
▁사립	-10.305
싶어	-10.3052
치면	-10.3054
ᄏᄏ	-10.3055
!!!!!	-10.3055
▁증명	-10.3056
▁미루	-10.3063
▁몸이	-10.3065
대통령님	-10.3071
▁시골	-10.3077
▁제주	-10.308
▁할것	-10.3083
▁옛날	-10.3084
▁부실	-10.3084
룰	-10.3088
몽	-10.3088
▁외국인들	-10.309
▁하여야	-10.3094
▁그들을	-10.3102
▁것인가	-10.3104
겠네요	-10.3105
▁친일파	-10.3106
▁증권	-10.3108
▁팬	-10.3109
▁돌리	-10.3111
▁쉴	-10.3112
할수있게	-10.3117
쓸	-10.3119
함으로써	-10.3121
▁다수의	-10.3122
▁해야할	-10.3123
▁어떻	-10.3123
▁인물	-10.3129
▁갔다	-10.3129
▁이것을	-10.313
벤	-10.3132
▁향후	-10.3133
있지만	-10.3135
▁배달	-10.3136
▁주장하는	-10.3138
순간	-10.3139
▁초등	-10.3139
▁온라인	-10.3144
드려	-10.3144
▁쉬는	-10.3144
▁니들	-10.3151
벼	-10.3154
▁속에서	-10.3158
▁몰랐	-10.3159
▁역할을	-10.316
▁몰카	-10.3173
▁국회에서	-10.3177
통일	-10.318
▁걸려	-10.3181
측에서	-10.3183
ar	-10.3187
▁맞습니다	-10.3188
45	-10.3194
▁개인회생	-10.3194
▁국민으로서	-10.3196
핑	-10.3198
▁다수	-10.32
▁알아야	-10.32
▁동일한	-10.3204
보수	-10.3204
▁느끼고	-10.3207
▁미만	-10.321
투기	-10.3211
▁토론	-10.3212
옵	-10.3213
렌	-10.3216
1%	-10.3216
▁조금만	-10.3217
▁예비	-10.3219
으려고	-10.322
▁해결할	-10.3222
▁뒤에	-10.3224
▁생리	-10.3226
백만원	-10.3227
▁민생	-10.3228
▁용기	-10.3229
▁하시고	-10.3231
▁전용	-10.3239
▁없어요	-10.3249
유치원	-10.3251
▁사랑하는	-10.3252
동물	-10.3256
▁대상이	-10.3264
▁별로	-10.3264
랍	-10.3266
▁시달리	-10.327
률이	-10.3273
▁싹	-10.3275
▁일관	-10.3276
민주	-10.3281
▁국가유공자	-10.3287
▁휴일	-10.3289
▁제작	-10.3289
렸다	-10.3294
▁명절	-10.3295
▁가운데	-10.3296
▁낮추	-10.3297
▁많다고	-10.3299
▁암호화폐	-10.3301
▁공권력	-10.3305
▁시스템을	-10.3306
닌	-10.3307
▁해라	-10.3309
낭비	-10.3315
북한	-10.3316
싼	-10.3317
년생	-10.3318
▁나무	-10.3325
▁진술	-10.3326
▁생각하면	-10.3326
되었으면	-10.3329
링	-10.3331
▁과학	-10.3335
▁신상	-10.3335
주민	-10.3338
보장	-10.3338
▁구체적	-10.3346
▁어쩔수	-10.3357
▁박정희	-10.3364
▁수출	-10.3377
▁금액을	-10.3381
▁못하면	-10.3385
▁검증	-10.3388
▁이민	-10.3388
▁사무실	-10.3389
▁기여	-10.3389
▁입시	-10.3389
▁출동	-10.339
▁실업자	-10.3392
▁살게	-10.3394
▁청소년법	-10.3394
▁강하게	-10.3395
▁같네요	-10.3396
뇨	-10.34
▁의무적으로	-10.34
▁행복한	-10.3403
컨	-10.3404
▁육아휴직	-10.3409
더라고요	-10.341
▁전역	-10.3411
▁결과가	-10.3412
테니	-10.3413
(1	-10.3414
▁범위	-10.3415
▁솜방망이	-10.3418
▁드루킹	-10.3423
▁회의	-10.3423
전화	-10.3423
▁살아가고	-10.3428
▁선출	-10.3431
▁있겠습니까	-10.3434
낳	-10.3435
엘	-10.3436
99	-10.3438
▁테	-10.3441
▁의문	-10.3442
▁늦게	-10.3446
▁미안	-10.3446
02	-10.345
▁근로시간	-10.3451
▁사건은	-10.3453
둬	-10.3454
근로	-10.3464
▁해주시길	-10.3467
해결	-10.3469
▁나타나	-10.3473
▁경고	-10.3474
상승	-10.3476
▁하도록	-10.3478
▁기다려	-10.3478
▁줄어	-10.3479
▁발생하고	-10.3481
▁질병	-10.3484
▁로또	-10.3484
기구	-10.3484
즘	-10.3485
▁주어야	-10.3486
얘	-10.3488
▁맡기	-10.3488
키우	-10.3489
카메라	-10.3491
내역	-10.3493
▁주기	-10.3495
▁빠지	-10.3505
재판	-10.3506
▁근처	-10.3513
깨	-10.3513
▁문대통령	-10.352
▁불법체류자	-10.3522
♥	-10.3529
▁심리	-10.3531
▁국가와	-10.3533
▁도망	-10.3533
▁페미니즘	-10.3541
▁말아주세요	-10.3542
춰	-10.3543
▁공포	-10.3548
▁보완	-10.3551
▁잠시	-10.3558
▁점검	-10.3559
▁연령	-10.3559
▁영구	-10.3568
▁확정	-10.3587
▁오르고	-10.3588
▁억울하게	-10.3597
되면서	-10.3597
▁언론사	-10.36
▁부양	-10.3603
딩	-10.3606
되지않	-10.3615
▁답답합니다	-10.3619
▁지키는	-10.3619
군인	-10.3619
▁방탄소년단	-10.3624
▁책정	-10.3626
방위	-10.3632
▁평창올림픽	-10.3634
▁상태입니다	-10.3642
▁쉽지	-10.3643
▁바램	-10.3644
차별	-10.3646
▁조심	-10.3647
▁김경수	-10.3648
28	-10.365
봉사	-10.3651
▁예전에	-10.3651
노동자	-10.3652
▁생활비	-10.3653
행사	-10.3659
게끔	-10.3664
하였지만	-10.3665
▁국정원	-10.3665
▁회원	-10.3665
▁자본	-10.3673
▁진입	-10.3675
지않은	-10.3679
▁나오면	-10.3679
획	-10.368
분야	-10.3684
▁졸	-10.3687
▁직무	-10.3687
뽑	-10.3687
▁조폭	-10.3689
단속	-10.3694
▁해주는	-10.3694
학생들	-10.3695
대보험	-10.3698
▁나면	-10.37
▁깔	-10.3706
▁의미가	-10.3706
▁통계	-10.3706
▁위법	-10.3709
▁국민신문고	-10.3717
▁힘드	-10.372
▁자국	-10.3721
업소	-10.3722
▁청와대에서	-10.3727
뇌	-10.3732
교통	-10.3734
▁자리를	-10.3735
켓	-10.3736
만명이	-10.3736
▁사무	-10.3738
되는것	-10.3746
적폐	-10.3746
▁나라입니까	-10.3748
▁빌려	-10.3749
▁번호	-10.376
▁오염	-10.376
▁말입니까	-10.3763
▁사용하고	-10.3768
▁깨끗	-10.3768
▁양도세	-10.3771
해달라고	-10.3772
▁하는것이	-10.3774
▁자리에	-10.3774
▁시세	-10.3775
▁우롱	-10.3776
릅니다	-10.3776
웅	-10.3778
▁SNS	-10.3778
▁상관없이	-10.378
▁달려	-10.378
▁결제	-10.3785
▁불편함	-10.3786
▁노동부	-10.3793
▁일상	-10.3796
▁구제	-10.3797
▁화장	-10.3799
▁여학생	-10.3803
되어서	-10.3804
▁함부로	-10.3807
▁목소리를	-10.381
공장	-10.3815
면허	-10.3815
▁없애주세요	-10.3821
겠지	-10.3821
▁당첨	-10.3821
▁남기	-10.3822
▁무엇보다	-10.3823
▁그린벨트	-10.383
▁짧	-10.383
▁이름으로	-10.3835
▁세입자	-10.3841
▁있읍니다	-10.3849
버렸습니다	-10.385
▁땀	-10.3851
▁아울러	-10.3854
휴일	-10.386
▁부탁합니다	-10.3862
▁만족	-10.3866
▁막는	-10.3869
했다면	-10.3873
▁이전에	-10.3873
검찰	-10.3877
문재인	-10.3878
▁능력이	-10.3881
해지는	-10.3887
수술	-10.3891
피해자	-10.3895
지경	-10.3897
▁울산	-10.3902
▁그렇	-10.3903
전쟁	-10.3906
▁수준이	-10.3909
알고	-10.3909
▁당하는	-10.3915
st	-10.3917
▁불공정	-10.392
▁지켜보	-10.3925
적용	-10.3925
야말로	-10.3926
▁중개	-10.393
끄	-10.393
사태	-10.3933
km	-10.3933
37	-10.3936
▁모여	-10.3942
싫	-10.3943
부족	-10.395
부처	-10.3951
있으면	-10.3951
▁효과가	-10.3957
▁존경	-10.3964
▁조국	-10.3964
▁남겨	-10.3965
▁모자	-10.3966
▁나눠	-10.3968
▁가르치	-10.3969
23	-10.397
▁일어나는	-10.3972
▁방식으로	-10.3974
뢰	-10.3976
▁지하	-10.3977
▁양육	-10.3981
쌀	-10.3982
여자	-10.3985
▁더더욱	-10.3987
인간	-10.3991
만들어	-10.3993
▁퇴출	-10.3994
▁죽이는	-10.3995
공화국	-10.3998
이라서	-10.4011
▁깨끗한	-10.4012
▁버리고	-10.4014
▁저소득층	-10.4016
▁22	-10.4016
▁잃어	-10.4025
언론	-10.4025
▁찍어	-10.403
▁안돼	-10.4031
국회의원	-10.4032
맘	-10.4034
▁비상	-10.404
▁보아	-10.4042
▁인생을	-10.4045
▁쉽	-10.4054
24	-10.4056
겠어요	-10.406
▁살펴	-10.406
▁양산	-10.4068
▁사용할	-10.4068
▁흘러	-10.4069
▁헛	-10.4073
▁모습이	-10.4073
▁여가부	-10.4074
▁최순실	-10.4074
뿐더러	-10.4074
딸	-10.4078
▁재개발	-10.408
▁뭔	-10.4081
렬	-10.4088
▁해산	-10.4092
▁실천	-10.4097
사무소	-10.4099
할려고	-10.41
▁줄일	-10.4101
제품	-10.4108
▁나가는	-10.411
될수	-10.4111
▁뜨	-10.4115
▁지켜야	-10.4118
▁난민들	-10.4122
현실	-10.4123
▁참석	-10.4125
미터	-10.4128
▁한전	-10.4131
▁생각해보	-10.4133
하듯	-10.4134
▁노인들	-10.4134
천만	-10.4135
갓	-10.4137
▁창업	-10.414
▁조합	-10.4142
▁취직	-10.4144
▁청소년보호법	-10.4152
▁여중생	-10.4152
하자는	-10.4153
▁두려워	-10.4157
▁적발	-10.4163
▁주권	-10.4165
▁공무원연금	-10.4169
▁사업주	-10.4175
▁뉴스에서	-10.4179
방안	-10.4183
현재	-10.4184
▁국적	-10.4186
것처럼	-10.4188
▁집권	-10.4192
▁가슴이	-10.42
▁이재명	-10.4202
▁모른	-10.4207
▁상처를	-10.4213
▁자식들	-10.4214
????	-10.4214
탑	-10.4215
▁인근	-10.4216
광고	-10.4221
여명	-10.4223
▁저지르고	-10.4223
판매	-10.4232
▁부모들	-10.4233
▁어려	-10.4233
▁무능한	-10.4236
▁성희롱	-10.424
칸	-10.424
▁민심	-10.4246
시켜서	-10.4259
쪼	-10.426
▁28	-10.4268
▁급여를	-10.4269
▁드는	-10.4276
▁문대통령님	-10.4278
▁설계	-10.4279
엄마	-10.428
▁개인적인	-10.4285
▁되도록	-10.4285
달라	-10.4293
▁자산	-10.4294
▁하였고	-10.4295
▁향상	-10.4296
▁병원비	-10.4298
▁교도소	-10.43
▁본사	-10.4302
▁식사	-10.4303
▁월드컵	-10.4304
드릴	-10.4304
▁않나	-10.4304
겹	-10.4309
08	-10.4311
▁형성	-10.432
싶다	-10.4323
▁바라며	-10.4324
되었고	-10.4329
▁명백한	-10.4334
▁표시	-10.4336
▁다른나라	-10.4339
컵	-10.4339
▁며칠	-10.4339
▁청년들이	-10.434
▁쓰지	-10.4347
▁똥	-10.4348
▁가구	-10.4353
하지말고	-10.4355
▁것인데	-10.4355
▁받으면	-10.4358
▁2000	-10.4359
▁낫	-10.4363
▁지키지	-10.4369
법원	-10.4369
▁많아서	-10.4369
▁상실	-10.437
▁23	-10.437
▁개인적으로	-10.4371
▁그래	-10.4373
▁우울증	-10.4379
보기	-10.4388
▁큽니다	-10.4389
▁날씨	-10.4395
소송	-10.4398
▁있었는데	-10.4398
▁조금이나마	-10.4399
▁이재용	-10.4399
▁다문화	-10.44
톤	-10.4404
▁지킬	-10.4405
▁여성들이	-10.4408
들끼리	-10.4415
턱	-10.4419
▁터지	-10.4425
▁저렇게	-10.4434
▁때문이다	-10.4436
▁실태	-10.4437
▁범인	-10.4438
▁테러	-10.4439
▁먼지	-10.4444
▁앉아	-10.4448
▁아침에	-10.4452
트리	-10.4452
▁얻어	-10.4453
▁움직이	-10.4454
▁무시하는	-10.4465
▁cctv	-10.4469
▁않아서	-10.4469
▁신중	-10.4472
▁대다수의	-10.4478
꼬	-10.448
년차	-10.448
▁가득	-10.4482
▁출석	-10.4483
9%	-10.449
▁모른다	-10.4493
▁도둑질	-10.4495
▁역사를	-10.4496
▁나갈	-10.4497
▁상위	-10.4498
▁어린아이	-10.4499
▁않는다는	-10.4503
▁바꾸어	-10.4504
▁동성애	-10.4504
▁전두환	-10.4504
▁유출	-10.4504
머리	-10.4507
▁해주십시요	-10.4508
▁철도	-10.4509
잘못	-10.451
▁이런일이	-10.451
므	-10.4511
▁환수	-10.4514
09	-10.4516
▁주실	-10.4517
하십시요	-10.4519
▁공산주의	-10.4519
▁광화문	-10.4519
▁5.18	-10.452
▁좌파	-10.4526
▁지방선거	-10.4528
왔다	-10.453
▁유사	-10.4533
잉	-10.4535
▁포함한	-10.4535
▁될것	-10.4538
▁유발	-10.4541
▁첨부	-10.4547
▁못했습니다	-10.4565
▁국민여러분	-10.4569
버려	-10.4572
강화	-10.4574
▁방과후	-10.4575
▁나경원	-10.4575
못하는	-10.4581
▁엄마입니다	-10.4581
▁철저하게	-10.4585
▁수급자	-10.4589
차원에서	-10.4592
▁답답한	-10.4593
불법	-10.4603
▁반대로	-10.4603
▁폐업	-10.4604
▁6.25	-10.4606
▁달라고	-10.4607
스런	-10.4613
▁채권	-10.4615
▁CCTV	-10.4616
▁복잡	-10.4619
센	-10.4621
▁존재하는	-10.4621
▁무고죄	-10.4621
▁입국	-10.4625
▁재발	-10.4625
▁꽃	-10.4626
평화	-10.4629
▁임용	-10.4634
▁컴퓨터	-10.4637
체계	-10.4637
냅니다	-10.4639
▁세비	-10.464
▁소위	-10.4642
녕	-10.4645
▁넘기	-10.4646
윈	-10.4652
▁해제	-10.4652
▁가끔	-10.4656
▁누진세	-10.4662
길래	-10.4665
욱	-10.4668
칩니다	-10.4669
▁파견	-10.4673
▁모르지만	-10.4674
▁승인	-10.4675
▁나쁘	-10.4682
이라며	-10.469
▁수준으로	-10.4691
▁태풍	-10.4691
▁자행	-10.4695
▁많았	-10.4696
깜	-10.4703
▁제거	-10.4705
▁터무니	-10.4708
▁신도시	-10.4709
▁그렇기	-10.4711
▁뭡니까	-10.4719
▁그들에게	-10.4719
▁확률	-10.473
▁않는다고	-10.473
▁물려	-10.4734
800	-10.4736
어린이집	-10.4739
▁성범죄자	-10.4739
▁느끼는	-10.4742
하겠지만	-10.4743
ᅳᅳ	-10.4743
몫	-10.4745
▁더러운	-10.4745
▁전원	-10.475
듯합니다	-10.4755
▁KBS	-10.476
▁멀쩡	-10.476
▁150	-10.4762
▁따르	-10.4762
깊	-10.4765
▁믿습니다	-10.4766
▁고양이	-10.4768
▁회복	-10.4772
▁옹호	-10.4776
예요	-10.4776
▁용산	-10.4781
▁미군	-10.4783
▁어떨까요	-10.4785
듯한	-10.4786
▁허나	-10.4788
3%	-10.4794
▁수험생	-10.4798
하시기	-10.4801
홈	-10.4802
▁거절	-10.4805
▁아십니까	-10.4805
▁행정부	-10.4807
▁종목	-10.4813
▁정의로운	-10.4814
▁운운	-10.4816
▁흔	-10.4817
요원	-10.4819
▁악화	-10.482
▁기회가	-10.4822
버렸	-10.4822
▁방향으로	-10.4825
▁자유롭게	-10.4825
아래	-10.4828
찌	-10.4832
▁여기저기	-10.4833
▁불편한	-10.4833
▁애초에	-10.4833
중국	-10.4835
▁하지말고	-10.4836
▁죽고	-10.4841
라니요	-10.4842
▁상관	-10.4842
▁한국당	-10.4842
▁부활	-10.4846
▁관행	-10.4848
소유	-10.4851
▁아픔	-10.4851
▁모자라	-10.4852
▁몇번	-10.486
따위	-10.4862
▁폭염	-10.4862
▁살해	-10.4862
▁명령	-10.4879
▁왜냐하면	-10.4886
34	-10.4891
▁궁	-10.4893
신다면	-10.4898
▁유포	-10.4899
▁불평등	-10.4905
0,000	-10.4908
▁없어져야	-10.4909
▁체계	-10.4915
▁연체	-10.4918
▁그러면서	-10.4922
▁막말	-10.4926
▁부동산투기	-10.4927
▁쓰게	-10.4929
판결	-10.4931
▁낳고	-10.4932
▁무섭습니다	-10.4932
홍	-10.4937
해달라	-10.4937
▁해임	-10.4941
▁무단	-10.4943
▁인터뷰	-10.4943
▁떠들	-10.4952
▁상대방	-10.4953
떨	-10.4956
65	-10.4958
부장관	-10.4959
일본	-10.4961
▁조항	-10.4961
▁근무하고	-10.4961
공간	-10.4968
됐습니다	-10.497
오르	-10.497
▁조합원	-10.4971
▁회계	-10.4972
주택자	-10.4974
셧	-10.4975
▁실질적으로	-10.4979
▁2014	-10.4981
▁기재	-10.4982
▁거쳐	-10.4983
▁에너지	-10.4984
▁해줄	-10.4997
다시피	-10.4998
수업	-10.5006
괄	-10.5007
Y	-10.5023
▁보세요	-10.5025
▁허리	-10.5026
▁떨어져	-10.5028
▁그렇고	-10.5029
▁보훈	-10.5029
▁기반	-10.5038
▁데리고	-10.504
▁다닐	-10.504
▁힘써	-10.5041
▁대중	-10.5045
렵	-10.5052
▁누진제	-10.5055
지마라	-10.5057
삭	-10.5065
신도시	-10.5066
▁갖추	-10.5069
▁장비	-10.5075
학원	-10.5075
맛	-10.5076
▁포장	-10.5091
▁살인사건	-10.5092
▁판정	-10.5093
뿐만아니라	-10.5094
▁막아야	-10.5096
▁감히	-10.5097
▁억울하	-10.51
▁가려	-10.5104
▁안된다는	-10.5104
살아	-10.5107
▁후회	-10.5108
건물	-10.5109
▁폭락	-10.5112
있었	-10.5119
▁현재까지	-10.512
청소년	-10.512
개정	-10.5121
몇	-10.5125
특별	-10.513
▁IT	-10.5141
▁삭감	-10.5141
▁기부	-10.5144
▁중요하지만	-10.5152
다니요	-10.5153
▁말로만	-10.5154
▁경남	-10.5154
▁당해	-10.5155
딜	-10.5157
03	-10.5157
ᅮᅮ	-10.5168
그렇	-10.5169
체육	-10.5169
▁손흥민	-10.5173
▁야근	-10.5175
줘서	-10.5183
▁촬영	-10.5189
▁초래	-10.5203
▁모순	-10.5206
▁사례가	-10.521
▁싶어도	-10.5214
▁똑같	-10.5221
▁안좋은	-10.5223
▁계십니다	-10.5224
▁최초	-10.5227
썼	-10.5238
것이라	-10.5238
▁국토	-10.524
▁타당	-10.5241
▁분리	-10.5241
▁냄새	-10.5244
▁대충	-10.5245
마냥	-10.5246
▁바다	-10.5246
횡	-10.5249
▁블록체인	-10.5249
▁대우를	-10.5254
▁보증금	-10.5255
릇	-10.5257
▁화폐	-10.5261
▁너희	-10.5264
..!!	-10.5269
▁살면서	-10.527
▁통행	-10.5273
05	-10.5273
▁어렵고	-10.5276
▁상식적으로	-10.5279
▁투자자	-10.5281
▁지켜주	-10.5281
▁카풀	-10.5283
▁적절한	-10.5287
▁조기	-10.5291
▁조롱	-10.5291
▁지난해	-10.5295
▁해킹	-10.5298
화재	-10.5299
▁모집	-10.5305
▁각각	-10.5308
▁간절	-10.5312
▁시각	-10.5312
▁여러분들	-10.5317
▁화가나	-10.532
했을때	-10.5322
▁예외	-10.5323
▁상장	-10.5323
▁좋겠다	-10.5326
▁돌보	-10.5327
랐	-10.5329
▁이런것	-10.5331
▁만들어진	-10.5333
▁해명	-10.5334
▁이슈가	-10.5337
▁경찰청	-10.5341
▁또다른	-10.5344
▁회수	-10.5349
▁교실	-10.5349
셨으면	-10.5354
▁펴	-10.5355
▁합법화	-10.5355
▁임대주택	-10.5357
▁잘살	-10.5359
▁짓밟	-10.5359
▁가짜뉴스	-10.5359
▁충분한	-10.536
▁손해를	-10.5362
▁키울	-10.5362
▁좋지만	-10.5364
▁동물들	-10.5369
▁인격	-10.5375
셈	-10.5375
▁짧은	-10.5378
놨	-10.5381
▁현제	-10.5381
▁협상	-10.5382
▁맛	-10.5391
▁야구	-10.5393
▁KT	-10.5397
분들에게	-10.5399
▁응시	-10.5401
▁뻔뻔	-10.5403
멋	-10.5408
▁주범	-10.5409
낮	-10.5415
▁2~3	-10.5417
▁빨갱이	-10.5419
▁즐기	-10.5422
▁걷어	-10.5425
▁그러다	-10.5427
▁만들지	-10.5429
▁필요할	-10.543
▁허락	-10.5436
거래소	-10.5443
▁지옥	-10.5448
▁후손들	-10.5449
▁뭐라	-10.5451
롱	-10.5451
▁받으며	-10.5452
▁명칭	-10.5452
▁일용직	-10.5453
re	-10.5453
더라	-10.5457
▁말도안되는	-10.5458
▁맨날	-10.5458
하셔야	-10.5462
▁무너지	-10.5465
▁30%	-10.5468
▁중소	-10.5471
해준	-10.5475
▁압류	-10.5475
바닥	-10.548
땜	-10.548
▁최선을	-10.5481
▁받아들이	-10.5482
▁촉구	-10.5483
▁지키고	-10.5484
▁돼지	-10.5486
▁후원	-10.5488
▁같아서	-10.5489
호선	-10.549
▁낮아	-10.5501
▁입학정원	-10.5503
▁배제	-10.5503
▁20%	-10.5507
▁국공립	-10.5508
으니까	-10.551
함에도	-10.551
▁밟	-10.5519
▁돕	-10.5521
▁만들기	-10.5525
▁있었으면	-10.5525
▁왔다	-10.5527
▁가리	-10.554
▁몰래	-10.5541
긍	-10.5547
뜯	-10.5551
▁택시기사	-10.5552
▁알기	-10.5556
▁군면제	-10.556
발생	-10.5563
▁성별	-10.5564
▁신경쓰	-10.5568
▁몰려	-10.5569
700	-10.5576
▁합당한	-10.5578
▁사립유치원	-10.5582
▁가능성	-10.5584
높	-10.5584
포함	-10.5584
▁피우	-10.5586
▁무서워	-10.5587
결정	-10.5589
▁이유만으로	-10.559
▁열악한	-10.5598
▁경제적으로	-10.5602
톡	-10.5609
▁교회	-10.5612
헬	-10.5612
▁한쪽	-10.5614
뼈	-10.5615
▁변명	-10.5617
▁매입	-10.5618
▁정비	-10.5621
▁두려움	-10.5621
▁명목으로	-10.5621
지않게	-10.5623
▁누굴	-10.5634
하시길	-10.5638
▁휴식	-10.564
▁건설사	-10.564
▁부자	-10.5644
▁벗	-10.5645
▁아이돌	-10.5646
▁착용	-10.5647
연맹	-10.5647
▁소외	-10.5648
▁입금	-10.5651
님께서	-10.5658
▁골목	-10.566
규칙	-10.5663
▁파산	-10.5665
▁나왔습니다	-10.5673
▁국군	-10.5676
▁있네요	-10.5678
▁늘려야	-10.5685
▁빠르게	-10.5689
▁정신병	-10.5689
38	-10.5702
▁처방	-10.5713
▁나름	-10.5714
▁써야	-10.5716
▁실업	-10.5719
굶	-10.5723
▁낳아	-10.5726
▁매수	-10.5726
저희	-10.5726
▁생기는	-10.5727
주차장	-10.5728
재단	-10.5729
07	-10.5734
▁직무유기	-10.5734
▁개개인	-10.5735
아닙니까	-10.5735
▁간부	-10.5735
직원들	-10.5738
▁아닐까	-10.5738
전환	-10.574
▁조속히	-10.574
떡	-10.5742
▁될것입니다	-10.5748
▁입대	-10.575
▁제외한	-10.5752
▁집행유예	-10.5757
▁그렇지만	-10.5764
마리	-10.5772
아닌가요	-10.578
▁공기청정기	-10.578
시켜주	-10.5786
▁불합리	-10.5789
다는것	-10.5794
▁인기	-10.5799
▁철거	-10.5803
▁표기	-10.5804
▁불합리한	-10.5806
▁일방적으로	-10.5809
▁의원들	-10.5812
거같습니다	-10.5814
▁역할	-10.5816
해봅니다	-10.5821
▁영원히	-10.5832
▁지도자	-10.5834
시킨다	-10.5843
▁떳떳	-10.5844
▁횡령	-10.5849
절차	-10.585
보단	-10.5853
▁전력	-10.5853
첩	-10.5858
▁사람으로서	-10.5858
▁아실	-10.5861
▁충분	-10.5864
▁페미니스트	-10.5867
▁병역거부	-10.5867
▁혁신	-10.5872
밭	-10.5872
▁하소연	-10.5873
▁감면	-10.5874
그런	-10.5879
88	-10.5883
※	-10.5884
▁발행	-10.5892
▁80%	-10.5899
▁좋아하는	-10.59
스럽고	-10.59
훌	-10.5901
▁소문	-10.5902
▁무고한	-10.5903
▁배출	-10.5904
▁될까요	-10.5905
▁기획	-10.5908
▁경쟁력	-10.591
앱	-10.5913
▁안타깝습니다	-10.5919
▁꼼수	-10.592
할수있도록	-10.5921
▁분열	-10.5924
변경	-10.5925
▁일찍	-10.5927
행동	-10.593
거든요	-10.5931
▁그렇다	-10.5932
▁기각	-10.5936
닫	-10.5939
▁맞아	-10.5949
▁막막	-10.5957
웠습니다	-10.5963
▁심각하게	-10.5975
줬으면	-10.5977
▁있을수	-10.5979
▁겉	-10.5981
▁말아야	-10.5985
▁공직	-10.5985
렁	-10.5989
300	-10.5992
▁높여	-10.5995
학기	-10.5997
하다보니	-10.6002
tv	-10.6002
뤄	-10.6002
▁한푼	-10.6007
▁비록	-10.6014
▁야기	-10.6015
▁비밀	-10.6018
▁있죠	-10.6023
빼	-10.6025
▁바꿔야	-10.6026
it	-10.6033
▁건강보험료	-10.6042
▁세월	-10.6042
수수료	-10.6042
▁인해서	-10.6044
▁징수	-10.6046
▁어르신들	-10.605
▁과세	-10.6053
▁선언	-10.6053
쇼핑	-10.6055
▁바른	-10.6056
▁발생할	-10.6066
▁근본	-10.6072
▁끔찍한	-10.6072
졌으면	-10.6079
▁개최	-10.608
▁떨어진	-10.6086
▁들어간	-10.6094
▁지연	-10.6096
▁물리	-10.6098
▁등록금	-10.6101
웨	-10.6101
잡아	-10.6102
▁시선	-10.6106
▁억울합니다	-10.6107
▁협조	-10.6114
▁더불어민주당	-10.6119
였고	-10.612
부탁	-10.6122
▁처음부터	-10.6124
▁과도한	-10.6124
ᄍ	-10.6125
하였으면	-10.6125
▁셋째	-10.6125
al	-10.6126
▁파렴치	-10.6131
▁태어난	-10.6131
▁권고	-10.6139
▁이해할	-10.6146
ᄒᄒ	-10.6149
▁관할	-10.6154
▁운용	-10.6156
▁흘리	-10.6159
▁중국발	-10.6164
▁급식	-10.6164
▁예멘	-10.6168
▁거주하는	-10.6173
▁자유민주주의	-10.6174
집값	-10.6179
으라	-10.6181
드리는	-10.6182
▁어마어마	-10.6184
뭐	-10.6189
똑	-10.619
▁흐름	-10.619
▁무서워서	-10.6191
▁실질적인	-10.6194
▁나가서	-10.6199
▁똑바로	-10.6202
▁분류	-10.621
▁출전	-10.6223
▁구축	-10.6226
▁조사하여	-10.6231
▁매월	-10.6232
▁부채	-10.6233
혁	-10.6234
왔던	-10.6234
▁않았으면	-10.6235
▁갈수	-10.6236
▁인권침해	-10.6238
▁넘어서	-10.625
떠	-10.6255
륭	-10.6256
▁바뀐	-10.6257
▁확실하게	-10.626
▁뭔지	-10.6261
▁유일한	-10.6265
으세요	-10.6268
▁태양광	-10.6268
▁민간인	-10.6285
▁정치권	-10.6285
▁불신	-10.6286
▁있었고	-10.6287
▁문정부	-10.629
▁죄인	-10.6292
▁여성부	-10.6299
▁한두	-10.6302
president	-10.6305
여행	-10.6305
▁무분별한	-10.6311
▁편안	-10.6312
왔고	-10.6315
▁역대	-10.6322
▁있을것	-10.6322
뭉	-10.6323
▁보냈	-10.6326
▁전액	-10.6328
▁쉬운	-10.6332
▁만행	-10.6334
▁엉망	-10.6341
본부	-10.6347
되어있는	-10.6351
교대	-10.6351
▁확신	-10.6356
유공자	-10.6356
▁승진	-10.6364
▁각자	-10.6366
▁그분들	-10.6376
국회	-10.638
▁좋다고	-10.6382
▁페이스북	-10.6384
▁심각합니다	-10.6388
▁올려봅니다	-10.639
듬	-10.639
▁세무	-10.6399
▁순수	-10.6404
▁다루	-10.6407
▁통신사	-10.6415
되도록	-10.6419
▁강원랜드	-10.642
띄	-10.642
군데	-10.6421
▁전투	-10.6421
▁업주	-10.6428
▁나영이	-10.6436
▁원금	-10.6437
▁있을까	-10.6451
하시나요	-10.6454
▁조금씩	-10.6456
▁배상	-10.6462
▁소개	-10.6465
▁명예훼손	-10.6469
▁친환경	-10.6474
되었다는	-10.6475
▁제약	-10.6476
덩	-10.6482
=0	-10.6484
04	-10.6487
하더니	-10.6489
▁때려	-10.6491
▁청년입니다	-10.6499
▁여러번	-10.65
at	-10.6506
델	-10.6506
▁부정부패	-10.6513
▁올릴	-10.6515
▁보낼	-10.6515
▁정직	-10.6523
▁치안	-10.6526
▁사이버	-10.653
▁비슷	-10.6534
▁자녀들	-10.6538
▁초기	-10.655
▁정착	-10.6556
춤	-10.6556
튀	-10.6556
닐	-10.6557
▁티비	-10.6559
하므로	-10.6563
깝	-10.6564
이렇게	-10.6564
▁죽여	-10.6565
받게	-10.6566
▁전수조사	-10.6569
▁기념	-10.6572
▁성차별	-10.6573
있어서	-10.6575
▁일어났	-10.6577
55	-10.6578
▁죽이고	-10.6579
것같아	-10.658
▁유치	-10.6585
[	-10.6596
해온	-10.6597
48	-10.66
97	-10.6607
▁좋겠	-10.6615
▁지나면	-10.6615
▁위탁	-10.6616
▁가난한	-10.6616
▁우습게	-10.6618
▁고용노동부	-10.6618
▁판사들	-10.6621
▁그돈	-10.6622
플레이	-10.6626
▁뜯어	-10.6626
보유	-10.663
똘	-10.6631
▁공문	-10.6633
▁옳은	-10.6636
▁전기세	-10.6641
▁이러다	-10.6651
▁장려	-10.6654
▁느꼈	-10.6656
▁지켜주세요	-10.6658
▁아깝	-10.666
▁손혜원	-10.6662
▁사찰	-10.6665
▁느낄	-10.6668
▁끝내	-10.6676
▁거품	-10.6676
▁측정	-10.6679
할까	-10.6681
▁썩은	-10.6684
▁두번째	-10.669
▁중증	-10.6694
기위한	-10.6697
▁효율적	-10.67
젠	-10.671
닙	-10.6712
꺼라	-10.6713
▁역차별	-10.672
▁고스란히	-10.6738
▁불필요한	-10.6744
평등	-10.6748
▁기본권	-10.6752
▁생기고	-10.6753
았으면	-10.6757
기위해서	-10.6758
▁바꿀	-10.6759
▁기간제	-10.6761
▁살았	-10.6764
만으로도	-10.6768
▁국민투표	-10.6769
▁묵인	-10.677
▁빙상연맹	-10.6776
▁우리국민	-10.678
▁한참	-10.6782
▁견제	-10.6783
▁안되면	-10.6787
출산	-10.6787
삽	-10.6788
▁나누	-10.6789
▁제제	-10.6791
▁살려주세요	-10.6797
▁여건	-10.6799
아닙니다	-10.6802
올라	-10.6816
▁한글	-10.6816
ᅮ	-10.682
▁멈추	-10.682
@	-10.6833
▁홍준표	-10.6833
▁환경부	-10.6833
▁산정	-10.6837
덤	-10.6839
캠	-10.6839
헤	-10.6841
봅시다	-10.6852
▁민원인	-10.6855
▁실명	-10.6856
▁악마	-10.6857
▁버젓이	-10.6858
시켜라	-10.6865
경쟁	-10.6868
▁폭행사건	-10.6872
링크	-10.6876
시키면	-10.6879
▁적정	-10.6882
▁상속	-10.6883
중앙	-10.6886
▁아동학대	-10.689
▁보낸	-10.6891
▁도착	-10.6901
▁없어야	-10.6902
냄	-10.6903
▁싶어서	-10.6904
▁발달	-10.6906
▁분석	-10.6912
▁긍정적	-10.6916
▁제조업	-10.6924
▁욕심	-10.6924
▁찾아보	-10.6926
▁영국	-10.6928
▁없애야	-10.6933
▁가산점	-10.6936
▁요청드립니다	-10.6939
▁신분증	-10.6941
▁프랑스	-10.6942
껍	-10.6948
▁발생하지	-10.6949
자마자	-10.6953
▁처벌해주세요	-10.6953
으셨	-10.696
▁나몰라라	-10.6961
▁휴교	-10.6964
2%	-10.6964
▁체포	-10.6967
▁항목	-10.6975
▁악질	-10.6986
98	-10.6986
많으	-10.699
▁바람직	-10.6992
▁상환	-10.6993
▁막아주세요	-10.6996
▁알면서도	-10.7001
▁유족	-10.7005
▁롯데	-10.7007
▁임원	-10.7007
▁유입	-10.701
▁투자자들	-10.701
해보니	-10.7011
▁무주택	-10.7012
▁회피	-10.7012
▁세종시	-10.7014
▁배우자	-10.7017
거에요	-10.7021
▁본질	-10.7022
▁광역	-10.7023
앞에서	-10.7035
▁민주화	-10.7041
▁실적	-10.7041
▁불쾌	-10.7042
▁2013	-10.7043
;	-10.7051
▁마무리	-10.7059
엿	-10.7065
올려	-10.7066
▁한부모	-10.7071
▁상관없	-10.7079
▁도둑	-10.7079
▁여겨	-10.7082
▁집주인	-10.7085
▁유독	-10.709
▁나라다운	-10.7093
▁지났	-10.7093
▁해석	-10.7096
맑	-10.7104
▁건물주	-10.7108
▁페미	-10.7113
▁대체복무	-10.7119
복무	-10.7125
<	-10.7128
▁퍼주	-10.7133
쁜	-10.7134
겠는가	-10.7138
▁않지만	-10.714
드리겠습니다	-10.714
46	-10.7141
▁동료	-10.7143
▁저질렀	-10.7144
▁조선족	-10.7146
▁어떻게든	-10.7146
▁전략	-10.7148
▁메달	-10.7151
탓	-10.7153
▁휴게시간	-10.7157
▁감안	-10.7164
▁강원도	-10.7172
▁연관	-10.7173
▁공소시효	-10.7177
하시어	-10.7182
▁공연	-10.7183
섯	-10.7183
닿	-10.7183
▁감수	-10.7185
▁반발	-10.7186
▁불법주차	-10.7187
▁문제라고	-10.7189
▁선물	-10.7194
청산	-10.7196
였는데	-10.7199
4%	-10.7202
▁법규	-10.7203
이야기	-10.7207
▁모르겠네요	-10.7213
▁재직	-10.7213
▁잃고	-10.7215
▁받았다	-10.722
버리면	-10.722
노조	-10.7221
좁	-10.7221
▁상징	-10.7222
믿	-10.7226
▁형벌	-10.7229
▁바꿔주세요	-10.7234
끈	-10.7236
시키지	-10.7237
▁가난	-10.7241
킬	-10.7242
▁아니냐	-10.7242
찔	-10.7243
닭	-10.7243
▁당당하게	-10.7243
▁승객	-10.7245
간다고	-10.7247
▁OECD	-10.725
▁눈치보	-10.7258
▁헌신	-10.726
권력	-10.7261
종교	-10.7262
▁만연	-10.728
▁걸린	-10.7292
▁총선	-10.7292
▁멀리	-10.7293
▁탈세	-10.7299
으므로	-10.7306
▁싶네요	-10.7307
▁명단	-10.7308
▁입증	-10.7313
괴롭히	-10.7326
▁변제	-10.7335
우리나라	-10.7342
39	-10.7343
▁아끼	-10.7343
▁불공평	-10.7343
▁올리게	-10.7343
▁믿음	-10.7345
▁지원해주	-10.7347
▁사라져	-10.7347
▁날아	-10.7347
▁대규모	-10.735
~~~~~~~	-10.735
꽤	-10.7363
▁재활용	-10.7364
럴	-10.7371
했었	-10.7372
▁시급합니다	-10.7376
▁피눈물	-10.7377
삼아	-10.7378
받아서	-10.7379
▁법관	-10.7384
▁할아버지	-10.7395
▁객관적	-10.7397
▁엄청나게	-10.7397
▁채워	-10.7405
▁재조사	-10.7406
▁특별법	-10.7407
▁빈번	-10.7411
▁경남제약	-10.7417
▁가능합니다	-10.7419
75	-10.7419
▁안전관리자	-10.7424
----	-10.7437
▁창문	-10.7438
▁저질러	-10.7445
▁2020	-10.7446
슨	-10.7451
▁반응	-10.7463
했으니	-10.7464
▁주휴수당	-10.7465
▁공수처	-10.7472
▁자본주의	-10.7474
쁨	-10.7478
▁정해진	-10.7479
▁체류	-10.7481
▁바뀔	-10.7499
2017	-10.7499
▁그로인해	-10.7499
▁비행기	-10.75
꼭	-10.7503
해보세요	-10.7503
▁다음날	-10.7509
▁편법	-10.7513
▁발상	-10.7515
▁간호	-10.7517
컴	-10.7519
▁토요일	-10.7519
▁출발	-10.7523
것이며	-10.7525
▁외출	-10.7529
▁현실적인	-10.753
▁평일	-10.7533
▁가계부채	-10.7533
▁꾸준히	-10.7533
○	-10.754
슈	-10.7541
▁후손	-10.7545
쫒	-10.7547
▁때리	-10.755
le	-10.7555
해주면	-10.7559
취소	-10.7561
▁억울하고	-10.7564
▁반려견	-10.7567
▁없었다	-10.757
▁먹여	-10.7573
▁힘든데	-10.7581
하자면	-10.7592
▁댓가	-10.7596
▁탈락	-10.7599
장려금	-10.7601
▁현직	-10.7601
▁강구	-10.7604
콩	-10.7615
▁더럽	-10.7617
천명	-10.7619
▁파업	-10.762
줌	-10.7622
▁석탄	-10.7623
▁노선	-10.7627
멘	-10.7634
버릴	-10.7636
▁몇백	-10.7645
▁하청	-10.7645
▁날짜	-10.7649
;;	-10.765
빌	-10.7655
▁물러나	-10.7659
▁앞두고	-10.7666
▁채용비리	-10.7667
▁화물차	-10.7679
상담	-10.7694
06	-10.7695
▁추세	-10.7696
랜드	-10.7697
▁산재	-10.77
▁영장	-10.7705
▁학업	-10.7705
빛	-10.7708
▁동일하게	-10.7711
짤	-10.7712
▁경북	-10.7714
▁농사	-10.7715
▁과실	-10.7715
쓰러	-10.7721
▁절망	-10.7723
▁금전적	-10.7728
▁아니더라도	-10.7736
있어요	-10.7736
▁말했다	-10.7737
★	-10.774
웹	-10.774
되었던	-10.7741
텐	-10.7741
▁의문입니다	-10.7745
▁육군	-10.7748
▁적극적인	-10.7751
싸움	-10.7753
펜	-10.7754
용품	-10.7758
깍	-10.7761
▁비정상	-10.7762
▁감싸	-10.7766
담배	-10.7768
▁고갈	-10.7774
▁sns	-10.7775
애들	-10.7776
▁실험	-10.7779
설치	-10.7782
▁올리면	-10.7784
▁1~2	-10.7789
is	-10.7793
▁국세청	-10.7796
▁첫번째	-10.7798
▁자극	-10.7798
▁은폐	-10.7801
▁연계	-10.7801
010	-10.7802
▁주민등록	-10.7806
▁끌고	-10.7808
▁교원	-10.7811
지않았	-10.7811
▁생각하십니까	-10.7819
넷	-10.7839
▁하루종일	-10.7839
▁없나요	-10.7842
▁지침	-10.7843
▁앞장서	-10.7846
▁치매	-10.7848
▁교과서	-10.7848
▁익명	-10.785
▁못받고	-10.7856
▁문화재	-10.7856
아빠	-10.7859
했으며	-10.7869
잖	-10.7874
스러워	-10.7882
섰	-10.7888
▁필요성	-10.7893
▁사각지대	-10.7895
▁대놓고	-10.7898
▁보시면	-10.7899
사업자	-10.7907
▁흡연자	-10.7909
■	-10.7909
8%	-10.7916
▁엄중한	-10.7916
▁잠깐	-10.7924
▁후보자	-10.7925
▁공정하게	-10.7925
하되	-10.7927
젊	-10.7929
▁들어갈	-10.7934
흑	-10.7938
물론	-10.7946
▁중요합니다	-10.7948
으론	-10.7948
▁옮기	-10.7953
▁파탄	-10.7954
마련	-10.7955
벅	-10.7959
▁바뀌어	-10.796
선수들	-10.7962
숨	-10.7969
▁바쁜	-10.797
없어서	-10.7972
▁조용히	-10.7981
꿀	-10.7985
▁공정성	-10.7996
▁데려	-10.8001
▁난임	-10.8002
▁책임감	-10.8009
▁근로기준법	-10.8009
▁코스닥	-10.8009
▁느낀	-10.8009
▁다릅니다	-10.8024
있으며	-10.8027
하루	-10.8041
▁불행	-10.8043
▁치우	-10.8045
▁아이디어	-10.8045
▁국민으로써	-10.8052
▁90%	-10.8053
그런데	-10.8059
▁더군다나	-10.806
▁국정농단	-10.806
▁미투운동	-10.8061
▁전기요금	-10.8062
▁한반도기	-10.8063
준다면	-10.8065
▁가혹	-10.8067
해봐야	-10.8067
빽	-10.8067
▁소액	-10.807
▁영토	-10.8076
쁘	-10.8079
▁상장폐지	-10.8082
▁바뀌어야	-10.8084
▁보행자	-10.8085
▁고맙	-10.8086
▁로스쿨	-10.8096
맺	-10.8096
▁원망	-10.8097
▁설정	-10.8098
▁예술	-10.81
되거나	-10.81
▁느낍니다	-10.8103
▁정확하게	-10.8103
▁추운	-10.8105
▁싫습니다	-10.8106
▁평양	-10.811
html	-10.811
▁무책임한	-10.8118
▁방탄	-10.8123
님께	-10.8128
▁반환	-10.8129
찮	-10.813
▁극단적	-10.8132
왠	-10.8132
▁폭언	-10.8132
협정	-10.8133
▁흔히	-10.8134
▁전국적으로	-10.8138
작업	-10.8138
릭	-10.8139
▁몇달	-10.8148
▁개판	-10.8154
▁받아들여	-10.8154
이유로	-10.8155
▁받으면서	-10.8156
me	-10.8164
▁층간소음	-10.8169
▁기사들	-10.8178
▁드러나	-10.8183
▁이루어져야	-10.819
드렸	-10.819
영업	-10.8193
쓰레기	-10.8197
▁꿈꾸	-10.82
비율	-10.8202
▁기무사	-10.8206
하신다면	-10.8208
▁엄연히	-10.8212
▁남녀평등	-10.8213
▁사생활	-10.8217
▁낮춰	-10.8221
▁신용불량	-10.8227
▁설득	-10.8231
▁생기면	-10.8231
로인한	-10.8244
▁환자들	-10.8246
▁예를들어	-10.8247
있으니	-10.8251
빗	-10.8256
앤	-10.8264
늙	-10.8264
▁들리	-10.8267
▁한번씩	-10.8268
▁소규모	-10.8271
지원금	-10.8273
▁똑똑	-10.8279
▁맘대로	-10.828
느니	-10.8282
▁신입	-10.8285
▁정형식	-10.8286
아버지	-10.829
▁임대사업자	-10.8294
랬	-10.8297
▁고통받고	-10.8297
▁김보름	-10.8301
▁70%	-10.8307
▁특활비	-10.8308
▁원자력	-10.8308
▁양성평등	-10.8316
▁쓰여	-10.8329
▁사이비	-10.833
68	-10.8336
▁잘사는	-10.8336
틈	-10.8345
봤자	-10.8351
▁거듭	-10.8354
쓴	-10.8363
셀	-10.8367
▁나빠	-10.8379
▁빌라	-10.8379
▁김포	-10.8381
▁끌려	-10.8383
be	-10.8386
▁감사드립니다	-10.8387
▁실시간	-10.8388
▁농촌	-10.8402
닉	-10.8412
▁실업급여	-10.8413
▁투명하게	-10.8418
▁끼치	-10.842
억씩	-10.8423
올림픽	-10.8423
▁행복하게	-10.8426
▁개설	-10.8428
위험	-10.8428
▁부탁드리	-10.843
▁자세히	-10.8434
이에요	-10.8437
▁살아가야	-10.8438
▁유가족	-10.8438
프로그램	-10.8439
▁출장	-10.844
▁곳곳에	-10.8444
하더군요	-10.8447
▁언젠가	-10.8457
▁편히	-10.8462
▁해마다	-10.8463
44	-10.8464
▁2012	-10.8468
▁누구에게	-10.847
▁구글	-10.8475
▁건전한	-10.848
▁형제	-10.8484
▁생겼습니다	-10.8485
하였으며	-10.8488
▁목격	-10.8488
▁피같은	-10.8489
건축	-10.8491
▁앉아서	-10.8493
▁펼치	-10.8496
누구	-10.8498
▁들어온	-10.8503
il	-10.8508
▁횡단보도	-10.851
▁알았습니다	-10.8517
씌	-10.8517
▁접속	-10.8521
됩니까	-10.8521
▁밀려	-10.8523
아웃	-10.8523
▁남깁니다	-10.8528
륙	-10.8532
▁5000	-10.8534
냈습니다	-10.8535
▁승리	-10.8535
▁썩어	-10.8537
▁저축	-10.854
▁맡겨	-10.854
▁탄생	-10.854
▁누구보다	-10.8546
▁무슬림	-10.8548
▁알바생	-10.8555
결혼	-10.8557
▁드라마	-10.8563
▁대국민	-10.8567
▁무엇입니까	-10.8568
▁탈원전	-10.857
▁주머니	-10.8574
▁충당	-10.858
떼	-10.8586
▁어려울	-10.8589
지말라	-10.859
▁북미	-10.8593
▁한숨	-10.8596
▁돌아다니	-10.8597
▁매물	-10.86
투표	-10.86
▁아픕니다	-10.8601
▁경유차	-10.8604
▁물품	-10.8608
(?)	-10.8609
▁육성	-10.8626
있던	-10.8633
▁되겠습니까	-10.8633
▁표준	-10.8635
봤습니다	-10.8642
▁임차인	-10.8647
▁치료비	-10.8648
nhn	-10.8654
꽁	-10.8654
씻	-10.8654
▁국토교통부	-10.8654
년만에	-10.8661
▁상향	-10.8667
엉	-10.8669
템	-10.8669
▁직장인들	-10.8693
!!!!!!	-10.8694
즉	-10.8695
청와대	-10.8696
▁거기다	-10.8697
▁좌절	-10.8701
▁얻을	-10.8703
매매	-10.8708
▁공짜	-10.8709
▁침묵	-10.8709
▁어떨까	-10.8712
▁기피	-10.8719
▁착취	-10.8721
▁대출금	-10.8723
▁착각	-10.873
쳐먹	-10.8731
▁좁은	-10.8733
▁누릴	-10.8735
▁비닐	-10.8754
▁투기꾼들	-10.8755
▁어쩔수없	-10.8755
sid	-10.8756
▁배워	-10.8757
걱정	-10.876
봤는데	-10.8761
받으려	-10.8762
6%	-10.8762
▁왕따	-10.8764
95	-10.8767
▁입주민	-10.877
하구요	-10.8772
갖	-10.8776
▁난민법	-10.8776
▁명확한	-10.8777
▁붙어	-10.8786
▁요소	-10.879
핀	-10.8793
띠	-10.8793
▁간첩	-10.8797
▁불안감	-10.8799
▁일부러	-10.88
▁자연스럽게	-10.8802
포인트	-10.8803
id	-10.8818
▁분쟁	-10.8819
▁진출	-10.8819
증명서	-10.8823
놓았	-10.8826
▁성실히	-10.8832
▁나라냐	-10.8843
▁계정	-10.8847
▁거기서	-10.8849
ic	-10.885
▁선임	-10.8861
곰	-10.8863
▁싶은데	-10.8864
▁메갈	-10.8868
봉투	-10.887
리스트	-10.888
▁끊어	-10.8882
▁사회복무요원	-10.8894
짱	-10.8894
팡	-10.8894
▁LH	-10.8894
▁김대중	-10.8895
하지마시고	-10.8895
▁국가기관	-10.8895
▁부족하다	-10.8896
해주실	-10.8903
57	-10.8904
▁출연	-10.8905
그래서	-10.8908
▁영양	-10.8915
▁놀라	-10.8915
▁이루어지지	-10.8915
▁법령	-10.892
젤	-10.8926
▁금융감독원	-10.8926
▁억압	-10.8927
▁이해할수	-10.8927
▁무차별	-10.893
▁모조리	-10.8934
랜	-10.8938
하시는분들	-10.8949
▁점심	-10.8953
▁대법원장	-10.8956
▁저렴한	-10.8957
▁이루어지고	-10.896
종합	-10.8967
▁불체자	-10.8968
▁체크	-10.8969
♠	-10.8973
공인중개사	-10.8981
▁확장	-10.8984
▁안정화	-10.8992
항공	-10.8994
▁끝난	-10.8996
▁고령화	-10.8997
▁악법	-10.8997
묶	-10.9008
퇴직	-10.9008
▁난무	-10.901
방향	-10.9012
▁깊이	-10.9026
▁아시아	-10.9027
▁나누어	-10.9031
▁아름다운	-10.9044
떄	-10.9044
주시기바랍니다	-10.9049
▁책임자	-10.9051
▁꼬박꼬박	-10.9052
▁비례대표	-10.9052
▁붙여	-10.9069
▁휴무	-10.907
▁비흡연자	-10.9076
▁삼성증권	-10.9076
▁부리	-10.9076
▁진심	-10.9077
▁GTX	-10.9084
read	-10.9084
렇	-10.9086
▁음악	-10.9091
▁의구심	-10.9092
▁사회생활	-10.9094
▁않으며	-10.9103
먼저	-10.9103
▁아무렇지	-10.9104
특히	-10.9105
▁안녕	-10.9108
주십쇼	-10.9109
점검	-10.9111
▁오류	-10.9119
▁투기꾼	-10.9122
▁출생	-10.9125
bs	-10.913
▁다르다	-10.9134
▁유착	-10.9137
초등학교	-10.9137
랏	-10.914
▁골프	-10.9148
▁바뀌었	-10.9154
▁관공서	-10.9157
▁도심	-10.916
깁니다	-10.9168
국민연금	-10.917
▁청원게시판	-10.9177
▁얼마든지	-10.9177
▁농협	-10.9186
랙	-10.9205
힙니다	-10.9206
7%	-10.9206
▁일회용	-10.9207
녔	-10.9229
▁마땅히	-10.9235
▁걸쳐	-10.9237
TV	-10.9243
▁사형제도	-10.9245
▁소액주주	-10.9245
▁납입	-10.9246
▁일방적인	-10.9254
▁범죄행위	-10.9256
▁훈장	-10.9257
했어요	-10.9258
댓글	-10.9262
되었는지	-10.9281
진흥	-10.9284
▁그렇습니다	-10.9299
▁강력범죄	-10.9306
▁확실	-10.9308
▁취임	-10.9313
뱉	-10.9319
▁박탈감	-10.9319
모습	-10.932
카페	-10.9322
그래	-10.9325
▁추락	-10.9325
달러	-10.9328
ch	-10.9332
67	-10.9333
▁보험금	-10.9342
▁가르쳐	-10.9343
▁보인다	-10.9343
▁상여금	-10.9344
▁일반인들	-10.9344
▁석방	-10.9346
▁다름없	-10.935
룩	-10.9351
▁둘러	-10.9354
▁올림	-10.9357
▁진학	-10.9368
▁실명제	-10.9373
▁교수님	-10.9374
폴	-10.9376
갚	-10.9379
▁추첨	-10.9381
▁불쌍한	-10.9384
있었습니다	-10.9387
▁살펴보	-10.9388
▁권위	-10.9392
▁아니겠습니까	-10.9393
▁데이터	-10.9401
▁권익	-10.9402
융	-10.9402
▁독립운동	-10.9403
59	-10.9408
▁전문가들	-10.9413
시키려	-10.9413
▁잣대	-10.9419
▁갚아	-10.9421
▁자발적	-10.9425
굽	-10.9434
▁우린	-10.9445
▁양승태	-10.945
▁무엇인가	-10.9451
▁옳다고	-10.9452
▁도무지	-10.9459
▁40%	-10.9464
▁정황	-10.9467
▁어째서	-10.9475
있나요	-10.9477
▁바로잡	-10.9479
선택	-10.9482
▁맞지않	-10.9487
▁깊은	-10.9495
▁최우선	-10.95
▁종종	-10.9503
▁외노자	-10.951
77	-10.9513
▁성관계	-10.9514
▁성격	-10.9516
▁신체적	-10.9517
하겠죠	-10.9518
▁GM	-10.9525
▁사장님	-10.9534
▁펼쳐	-10.9542
▁내몰	-10.9545
▁균형	-10.9546
▁입찰	-10.9547
랫	-10.955
▁횟수	-10.9551
▁놔두	-10.9552
▁간접	-10.9554
옛	-10.9559
▁조선일보	-10.9559
뚫	-10.9567
▁향해	-10.9572
밤	-10.9574
▁와중에	-10.9576
▁강서구	-10.9577
줘라	-10.9581
▁매국노	-10.9584
주민들	-10.9588
▁자부심	-10.9593
▁포털	-10.9603
▁농업	-10.9607
▁중산층	-10.9609
ᄏ	-10.9621
뚝	-10.9626
▁요새	-10.9627
▁추석	-10.9628
▁국민혈세	-10.9643
힘든	-10.9645
▁신축	-10.9649
▁넘겨	-10.9657
땀	-10.9665
▁호텔	-10.9674
▁윤리	-10.9674
▁벌어지고	-10.9678
꼽	-10.9685
▁무기계약직	-10.9685
있습니까	-10.9685
▁신경써	-10.9687
▁운전면허	-10.9687
▁완료	-10.9699
서민들	-10.9701
엽	-10.9702
▁와이프	-10.9702
센타	-10.9708
***	-10.9708
펴	-10.9712
54	-10.9714
▁회식	-10.9717
▁고통받는	-10.9721
▁두렵습니다	-10.9726
외국인	-10.9731
▁국익	-10.9731
쾌	-10.9732
▁LG	-10.9736
▁국무총리	-10.9745
▁부가세	-10.9746
▁적합	-10.975
▁악순환	-10.9753
꿔	-10.9759
클럽	-10.9763
aid	-10.9764
▁시술	-10.9768
▁무릎	-10.9771
▁부탁드리겠습니다	-10.9782
▁내보내	-10.9787
▁보이스피싱	-10.9788
▁어긋나	-10.9788
▁관광객	-10.9789
릅	-10.9793
▁부모님들	-10.9798
팽	-10.9805
시끄럽	-10.9813
▁MBC	-10.9814
▁발목	-10.982
▁안락사	-10.9823
▁그러니까	-10.9829
▁계기로	-10.9841
▁정상회담	-10.9841
하느라	-10.9842
▁청렴	-10.9844
붓	-10.9848
▁작금의	-10.9848
▁오픈	-10.9849
▁사회주의	-10.9855
▁엄격한	-10.9856
▁철폐	-10.9856
▁사소한	-10.9863
96	-10.9864
올립니다	-10.9874
▁간단한	-10.9875
47	-10.9889
▁가벼운	-10.9891
▁셧다운제	-10.99
쏘	-10.99
냅	-10.9905
▁바로잡아	-10.9912
▁담합	-10.9913
헐	-10.9917
퍼센트	-10.9917
▁어떡	-10.9922
net	-10.9926
▁담임	-10.9928
▁기자들	-10.9935
큐	-10.9952
▁쓸데없는	-10.9952
▁해외여행	-10.9954
▁멍청	-10.9961
................	-10.9978
한마디	-10.9984
옮	-10.9986
퀴	-10.9987
되었지만	-10.9991
▁현명한	-10.9996
▁뭐합니까	-10.9997
oid	-10.9998
▁확산	-11.0001
발언	-11.0004
▁금메달	-11.0013
▁손해배상	-11.0013
bc	-11.0013
▁마당에	-11.0016
▁충족	-11.0019
▁불로소득	-11.0031
▁탑승	-11.0039
▁내세우	-11.004
▁건너	-11.004
꿈	-11.0049
as	-11.0055
▁법개정	-11.0056
▁특성상	-11.0057
▁실거래가	-11.0057
▁이국종	-11.0064
article	-11.0066
~~~~	-11.0069
▁중대한	-11.007
▁안희정	-11.0075
▁발암물질	-11.0083
▁창피	-11.0092
▁손가락	-11.0092
en	-11.0096
`	-11.0101
▁안그래도	-11.011
굳	-11.0124
▁붕괴	-11.0128
▁세력들	-11.0134
하지마세요	-11.0136
▁치르	-11.0138
▁지속적인	-11.0142
▁실효성	-11.0145
▁강릉	-11.0148
투쟁	-11.0152
금지법	-11.0154
▁아시안게임	-11.0154
▁김성태	-11.0154
58	-11.0159
87	-11.016
▁지휘	-11.0161
▁복귀	-11.0161
▁무분별하게	-11.0163
엠	-11.0163
웃	-11.0172
▁침략	-11.0175
▁일상생활	-11.0184
▁이러면	-11.0195
▁자존심	-11.0208
▁턱없이	-11.0208
▁잠재적	-11.021
버립니다	-11.022
곱	-11.0226
깎	-11.0226
숭	-11.0226
▁실습	-11.023
▁커피	-11.0232
바람	-11.0232
▁여성분들	-11.0234
▁커뮤니티	-11.0235
웁	-11.0235
덜	-11.0239
▁해결방안	-11.0241
스포츠	-11.0242
샀	-11.0244
▁의뢰	-11.0248
랴	-11.0253
▁영유아	-11.0253
▁근본적으로	-11.0256
몬	-11.0262
▁핵무기	-11.0271
▁법무부장관	-11.0272
말씀	-11.0277
▁징병제	-11.0277
부담금	-11.0279
XX	-11.0281
▁잃은	-11.0284
자격증	-11.0287
▁빨간	-11.0289
잇습니다	-11.0294
▁한사람으로서	-11.0294
▁허위사실	-11.0299
지마시고	-11.03
릉	-11.0304
닝	-11.0307
뱃	-11.0307
▁일삼는	-11.031
▁종부세	-11.0316
▁군인연금	-11.033
지방법원	-11.0331
▁따져	-11.0343
▁어플	-11.0346
훼	-11.0352
▁글로벌	-11.0352
▁여성단체	-11.0357
▁여성전용	-11.0361
▁강북	-11.037
▁바탕으로	-11.0379
▁청년실업	-11.0379
녹	-11.0385
▁PC	-11.0388
▁박상기	-11.0389
▁털어	-11.0391
▁당연하다	-11.0393
▁구속수사	-11.0402
▁도와주십시오	-11.0412
헌법	-11.0413
▁이제와서	-11.0416
▁용납	-11.0416
▁말이됩니까	-11.0428
▁충남	-11.0447
▁일요일	-11.0464
▁정신차리	-11.0472
뛰	-11.0472
빡	-11.048
▁회생	-11.048
▁배송	-11.0496
희망	-11.0512
▁넘쳐나	-11.0517
84	-11.0523
에너지	-11.0529
▁늘어날	-11.0542
▁부끄러운	-11.0544
▁법제화	-11.0545
▁하청업체	-11.0546
일으키	-11.0551
▁잃었	-11.0553
▁종료	-11.0555
▁좋겠네요	-11.0555
▁국가보훈처	-11.0563
▁재수사	-11.0593
▁있으므로	-11.0594
▁범행	-11.0595
▁적응	-11.0595
펀	-11.06
도우미	-11.0602
▁맞습니까	-11.0602
▁청춘	-11.0605
▁카톡	-11.061
▁살기좋은	-11.0611
▁직장생활	-11.0623
옷	-11.0624
▁끔찍	-11.0626
▁어떠	-11.0632
▁아프리카	-11.0637
▁기원합니다	-11.0638
▁내국인	-11.0638
▁납품	-11.0647
▁초미세먼지	-11.0658
▁노선영	-11.0661
▁흡연자들	-11.0663
릿	-11.0665
▁형사처벌	-11.0667
▁탁상행정	-11.0684
곽	-11.0684
앉	-11.0691
화장실	-11.0691
▁엉뚱한	-11.0693
딱	-11.07
▁죽어가는	-11.0702
잦	-11.0712
탱	-11.0731
튜	-11.0759
깔	-11.0839
늦	-11.0873
낡	-11.0911
킵	-11.0921
뻔	-11.0951
섞	-11.0959
ᄒ	-11.0969
칼	-11.0973
램	-11.1024
룬	-11.1047
삶	-11.1048
뜬	-11.1105
빚	-11.1171
쩍	-11.1184
픔	-11.1189
흉	-11.1203
팬	-11.1284
픽	-11.1292
룡	-11.1313
둑	-11.135
긋	-11.1353
껀	-11.1353
붕	-11.1373
떤	-11.138
q	-11.1413
찿	-11.1423
옆	-11.1456
뻐	-11.1464
껄	-11.1504
킴	-11.1525
봇	-11.1606
갱	-11.1616
엑	-11.1658
닷	-11.1731
쿨	-11.1741
•	-11.1772
뉘	-11.1783
눌	-11.1814
넥	-11.1825
칩	-11.1842
펼	-11.1843
훔	-11.1856
Z	-11.1984
폼	-11.2005
딪	-11.2026
ᄀ	-11.2048
뚱	-11.2048
텍	-11.2069
닦	-11.208
딘	-11.2102
콧	-11.2113
샵	-11.2145
깃	-11.2145
엎	-11.2189
촬	-11.2243
빅	-11.2265
끓	-11.232
퓨	-11.2431
톱	-11.2454
덥	-11.2487
펙	-11.2532
낙	-11.2611
옴	-11.2612
궐	-11.2646
떵	-11.2726
낯	-11.2807
Q	-11.2831
툼	-11.2877
렉	-11.2912
켰	-11.2934
샘	-11.2947
톨	-11.2959
룸	-11.2978
컬	-11.3006
휘	-11.3026
쩌	-11.3074
깡	-11.3101
밑	-11.3124
쭉	-11.3161
♡	-11.3173
젖	-11.3209
웬	-11.3245
☆	-11.327
댁	-11.3355
핸	-11.3379
됀	-11.3392
팩	-11.3441
즌	-11.3441
낭	-11.3441
ᄌ	-11.3453
벗	-11.3473
z	-11.3478
묻	-11.3486
멤	-11.3491
앨	-11.3491
앵	-11.3528
걷	-11.3588
샤	-11.3729
댄	-11.3755
꽃	-11.3756
롯	-11.3787
꽉	-11.3793
밴	-11.3806
탬	-11.3844
—	-11.3857
칫	-11.3948
쑤	-11.3987
」	-11.4
쫌	-11.4039
툭	-11.4039
「	-11.4052
삐	-11.4158
맙	-11.419
왓	-11.4251
텅	-11.4265
◆	-11.4305
럿	-11.4305
땡	-11.4373
틸	-11.4373
쥐	-11.4402
숲	-11.4441
뀌	-11.4451
흙	-11.4468
옹	-11.4509
뻥	-11.4564
컷	-11.4647
넌	-11.4675
핏	-11.4675
흔	-11.47
멈	-11.4745
줍	-11.4852
펌	-11.4859
↑	-11.4887
팝	-11.4916
똥	-11.4917
됍	-11.4944
쏠	-11.5002
ᄂ	-11.5017
읽	-11.503
짚	-11.506
덧	-11.5075
텨	-11.5075
캄	-11.5104
둡	-11.5118
밍	-11.5118
×	-11.5162
롤	-11.5206
괜	-11.5221
뱅	-11.5221
“	-11.5229
돋	-11.5236
랭	-11.5251
콤	-11.5295
춥	-11.531
흰	-11.537
뜩	-11.54
틴	-11.54
왼	-11.54
앓	-11.5436
퉁	-11.5445
낌	-11.546
왈	-11.546
깐	-11.5552
●	-11.5552
휩	-11.5566
폄	-11.5597
늬	-11.5628
댈	-11.5736
멀	-11.5752
쩔	-11.5779
캡	-11.5783
곁	-11.5814
덴	-11.5908
뺏	-11.595
돗	-11.6004
뿔	-11.6004
훗	-11.602
밸	-11.602
얹	-11.6036
흠	-11.6052
렛	-11.6084
뮤	-11.61
벙	-11.6213
썬	-11.623
쉼	-11.6262
뚜	-11.6279
쫓	-11.6311
맡	-11.6346
갤	-11.6394
낀	-11.6428
젓	-11.6428
꺽	-11.6428
^	-11.6444
볍	-11.6478
낱	-11.6545
뭣	-11.6545
뭔	-11.6572
◈	-11.6595
쌈	-11.6681
밝	-11.6745
뎌	-11.6749
뷰	-11.6766
촛	-11.6818
싹	-11.6833
몹	-11.6835
뜰	-11.6835
핍	-11.6905
듭	-11.6915
렷	-11.701
큼	-11.7025
맏	-11.7046
뱀	-11.7099
툰	-11.7135
꿉	-11.7188
봣	-11.7188
쏟	-11.726
쿵	-11.7279
ᄃ	-11.7425
꼼	-11.746
걍	-11.7462
갯	-11.748
낄	-11.7536
뻘	-11.7592
꿨	-11.7611
숫	-11.7626
딤	-11.7629
팠	-11.7705
ᄉ	-11.7762
꿇	-11.7781
쑈	-11.7857
캔	-11.7915
굉	-11.7934
셜	-11.7993
냉	-11.7999
붉	-11.8051
팸	-11.8051
솜	-11.8071
늄	-11.8091
뿜	-11.8091
삿	-11.817
쁩	-11.8189
쉴	-11.82
탔	-11.8269
뻗	-11.8289
멧	-11.8309
깥	-11.837
팍	-11.839
ᄆ	-11.841
쿄	-11.841
쎄	-11.841
섹	-11.8471
▶	-11.8595
핫	-11.8595
돔	-11.8636
뭇	-11.8636
컸	-11.8636
ᄅ	-11.8636
낫	-11.8658
궤	-11.8699
녁	-11.8711
횟	-11.8739
꾀	-11.8741
곧	-11.8765
몆	-11.8804
됫	-11.8867
댐	-11.8867
잣	-11.8947
괘	-11.8996
윗	-11.9027
찜	-11.9039
햐	-11.906
댓	-11.9078
꽂	-11.9104
봅	-11.9231
깁	-11.9232
‘	-11.9273
눔	-11.9324
돕	-11.9341
뺀	-11.9346
갇	-11.9391
쑥	-11.9503
긁	-11.9526
뒀	-11.9526
듀	-11.9526
밟	-11.957
쨌	-11.9617
랩	-11.9663
밉	-11.9686
썻	-11.9686
찹	-11.9756
ᅵ	-11.9849
늠	-11.9849
쭈	-12.0038
헷	-12.0038
덮	-12.0047
젼	-12.0062
넓	-12.0074
킥	-12.0086
졋	-12.011
찝	-12.011
겄	-12.011
붐	-12.0159
끙	-12.0183
둠	-12.0207
뺑	-12.0256
텀	-12.0256
굿	-12.028
엮	-12.0354
쌓	-12.0369
쌩	-12.0403
꺾	-12.0403
샌	-12.0553
쏴	-12.0654
|	-12.0731
씀	-12.0744
훨	-12.0782
휠	-12.0834
딛	-12.0834
늑	-12.0886
끊	-12.0919
첫	-12.0919
굼	-12.1017
뷔	-12.1017
솟	-12.1147
뚤	-12.1176
닮	-12.1176
♣	-12.1203
짙	-12.1257
삥	-12.1311
밌	-12.1311
댑	-12.1338
궈	-12.1393
펫	-12.142
믄	-12.1475
씹	-12.1475
맵	-12.1503
싣	-12.153
췌	-12.1558
꼈	-12.1614
찢	-12.1669
볕	-12.1726
쩡	-12.1754
숍	-12.1783
얄	-12.1869
썪	-12.1869
늉	-12.1898
쁠	-12.1898
븐	-12.1926
쿼	-12.1955
故	-12.1955
뭄	-12.1955
귄	-12.2013
푹	-12.2101
얀	-12.2101
뺐	-12.219
뜸	-12.2219
펑	-12.2279
췄	-12.2279
쏙	-12.246
쉰	-12.2613
댕	-12.2706
뺌	-12.2706
뵙	-12.2738
뽀	-12.2769
씬	-12.2769
씸	-12.2769
밎	-12.2927
떴	-12.2959
ᄇ	-12.2991
섣	-12.2991
딧	-12.3088
쎈	-12.3153
짬	-12.3153
엊	-12.3153
國	-12.3218
껌	-12.3284
□	-12.3317
꿎	-12.3317
싯	-12.3317
쵸	-12.3351
겐	-12.3408
뺨	-12.3518
쫄	-12.3552
귤	-12.3552
🤬	-12.3552
끗	-12.3586
헙	-12.3724
뤘	-12.3724
얌	-12.3724
힙	-12.3755
☞	-12.3828
∼	-12.3828
겪	-12.3914
ᅡ	-12.3933
멜	-12.3933
팟	-12.4039
뭍	-12.4075
썰	-12.4075
썸	-12.4111
걔	-12.4147
꼰	-12.4183
햄	-12.4219
大	-12.4219
앴	-12.4219
샅	-12.4256
쉐	-12.4292
떳	-12.4439
뵈	-12.4477
얇	-12.4477
뒷	-12.451
맟	-12.4514
듦	-12.4514
△	-12.4551
뽕	-12.4551
탠	-12.4551
갭	-12.4627
̈	-12.4627
솥	-12.4627
美	-12.4741
윌	-12.4856
쌤	-12.4856
됩	-12.4927
꾹	-12.4934
댜	-12.4934
낚	-12.4972
–	-12.5012
펄	-12.5091
줫	-12.5091
》	-12.5131
뛸	-12.5171
슷	-12.5205
믹	-12.5291
콕	-12.5332
쨋	-12.5332
国	-12.5372
팎	-12.5454
빤	-12.5495
잎	-12.5495
┓	-12.5495
뻑	-12.5536
찐	-12.5536
곪	-12.5536
\	-12.5578
샷	-12.5578
껑	-12.5703
댔	-12.5703
팁	-12.5703
붇	-12.5746
꿍	-12.5959
😡	-12.5959
『	-12.6003
땠	-12.6003
됄	-12.6046
』	-12.609
《	-12.6134
궂	-12.6178
▲	-12.6222
컥	-12.6222
넋	-12.6222
꼐	-12.6266
짠	-12.6311
쩜	-12.6311
윽	-12.6401
맴	-12.6401
ا	-12.6446
찼	-12.6446
텝	-12.6492
헨	-12.6537
}	-12.6583
킷	-12.6629
핌	-12.6629
롬	-12.6676
뻣	-12.6722
헝	-12.6722
꽝	-12.6769
人	-12.6769
눕	-12.6769
$	-12.6816
돠	-12.6816
쯔	-12.6863
깟	-12.691
얕	-12.691
꿰	-12.6958
{	-12.6958
벚	-12.7054
캣	-12.7054
륨	-12.7102
훤	-12.7151
쾅	-12.7151
↓	-12.7199
괸	-12.7248
늪	-12.7249
잊	-12.7264
짧	-12.7267
뛴	-12.7298
큽	-12.7347
겻	-12.7497
텃	-12.7548
렘	-12.7548
쥬	-12.7548
韓	-12.7599
셰	-12.765
🙏	-12.765
켠	-12.7701
北	-12.7804
걱	-12.8262
룹	-12.8963
뀐	-12.9133
떻	-12.9252
뭘	-12.958
쌉	-13.0003
젝	-13.0199
낍	-13.139
눠	-13.1533
겉	-13.3215
빕	-13.3818
넉	-13.3913
옳	-13.427
뀔	-13.4604
헛	-13.5121
멕	-13.6277
릎	-13.6392
퓰	-13.9379
촘	-14.4983
젋	-14.4984
갉	-14.4985
뀝	-14.4986
쭙	-14.4987
꿋	-14.4988
쭤	-14.4989
흩	-14.499
딨	-14.4991
죗	-14.4992
얽	-14.4993
픕	-14.4994
뭡	-14.4995
짊	-14.4995
